[PAD]
[unused1]
[unused2]
[unused3]
[unused4]
[unused5]
[unused6]
[unused7]
[unused8]
[unused9]
[unused10]
[unused11]
[unused12]
[unused13]
[unused14]
[unused15]
[unused16]
[unused17]
[unused18]
[unused19]
[unused20]
[unused21]
[unused22]
[unused23]
[unused24]
[unused25]
[unused26]
[unused27]
[unused28]
[unused29]
[unused30]
[unused31]
[unused32]
[unused33]
[unused34]
[unused35]
[unused36]
[unused37]
[unused38]
[unused39]
[unused40]
[unused41]
[unused42]
[unused43]
[unused44]
[unused45]
[unused46]
[unused47]
[unused48]
[unused49]
[unused50]
[unused51]
[unused52]
[unused53]
[unused54]
[unused55]
[unused56]
[unused57]
[unused58]
[unused59]
[unused60]
[unused61]
[unused62]
[unused63]
[unused64]
[unused65]
[unused66]
[unused67]
[unused68]
[unused69]
[unused70]
[unused71]
[unused72]
[unused73]
[unused74]
[unused75]
[unused76]
[unused77]
[unused78]
[unused79]
[unused80]
[unused81]
[unused82]
[unused83]
[unused84]
[unused85]
[unused86]
[unused87]
[unused88]
[unused89]
[unused90]
[unused91]
[unused92]
[unused93]
[unused94]
[unused95]
[unused96]
[unused97]
[unused98]
[unused99]
[UNK]
[CLS]
[SEP]
[MASK]
<S>
<T>
!
"
#
$
%
&
'
(
)
*
+
,
-
.
/
0
1
2
3
4
5
6
7
8
9
:
;
<
=
>
?
@
[
\
]
^
_
a
b
c
d
e
f
g
h
i
j
k
l
m
n
o
p
q
r
s
t
u
v
w
x
y
z
{
|
}
~
£
¤
¥
§
©
«
®
°
±
²
³
µ
·
¹
º
»
¼
×
ß
æ
÷
ø
đ
ŋ
ɔ
ə
ɡ
ʰ
ˇ
ˈ
ˊ
ˋ
ˍ
ː
˙
˚
ˢ
α
β
γ
δ
ε
η
θ
ι
κ
λ
μ
ν
ο
π
ρ
ς
σ
τ
υ
φ
χ
ψ
ω
а
б
в
г
д
е
ж
з
и
к
л
м
н
о
п
р
с
т
у
ф
х
ц
ч
ш
ы
ь
я
і
ا
ب
ة
ت
د
ر
س
ع
ل
م
ن
ه
و
ي
۩
ก
ง
น
ม
ย
ร
อ
า
เ
๑
་
ღ
ᄀ
ᄁ
ᄂ
ᄃ
ᄅ
ᄆ
ᄇ
ᄈ
ᄉ
ᄋ
ᄌ
ᄎ
ᄏ
ᄐ
ᄑ
ᄒ
ᅡ
ᅢ
ᅣ
ᅥ
ᅦ
ᅧ
ᅨ
ᅩ
ᅪ
ᅬ
ᅭ
ᅮ
ᅯ
ᅲ
ᅳ
ᅴ
ᅵ
ᆨ
ᆫ
ᆯ
ᆷ
ᆸ
ᆺ
ᆻ
ᆼ
ᗜ
ᵃ
ᵉ
ᵍ
ᵏ
ᵐ
ᵒ
ᵘ
‖
„
†
•
‥
‧
 
‰
′
″
‹
›
※
‿
⁄
ⁱ
⁺
ⁿ
₁
₂
₃
₄
€
℃
№
™
ⅰ
ⅱ
ⅲ
ⅳ
ⅴ
←
↑
→
↓
↔
↗
↘
⇒
∀
−
∕
∙
√
∞
∟
∠
∣
∥
∩
∮
∶
∼
∽
≈
≒
≡
≤
≥
≦
≧
≪
≫
⊙
⋅
⋈
⋯
⌒
①
②
③
④
⑤
⑥
⑦
⑧
⑨
⑩
⑴
⑵
⑶
⑷
⑸
⒈
⒉
⒊
⒋
ⓒ
ⓔ
ⓘ
─
━
│
┃
┅
┆
┊
┌
└
├
┣
═
║
╚
╞
╠
╭
╮
╯
╰
╱
╳
▂
▃
▅
▇
█
▉
▋
▌
▍
▎
■
□
▪
▫
▬
▲
△
▶
►
▼
▽
◆
◇
○
◎
●
◕
◠
◢
◤
☀
★
☆
☕
☞
☺
☼
♀
♂
♠
♡
♣
♥
♦
♪
♫
♬
✈
✔
✕
✖
✦
✨
✪
✰
✿
❀
❤
➜
➤
⦿
、
。
〃
々
〇
〈
〉
《
》
「
」
『
』
【
】
〓
〔
〕
〖
〗
〜
〝
〞
ぁ
あ
ぃ
い
う
ぇ
え
お
か
き
く
け
こ
さ
し
す
せ
そ
た
ち
っ
つ
て
と
な
に
ぬ
ね
の
は
ひ
ふ
へ
ほ
ま
み
む
め
も
ゃ
や
ゅ
ゆ
ょ
よ
ら
り
る
れ
ろ
わ
を
ん
゜
ゝ
ァ
ア
ィ
イ
ゥ
ウ
ェ
エ
ォ
オ
カ
キ
ク
ケ
コ
サ
シ
ス
セ
ソ
タ
チ
ッ
ツ
テ
ト
ナ
ニ
ヌ
ネ
ノ
ハ
ヒ
フ
ヘ
ホ
マ
ミ
ム
メ
モ
ャ
ヤ
ュ
ユ
ョ
ヨ
ラ
リ
ル
レ
ロ
ワ
ヲ
ン
ヶ
・
ー
ヽ
ㄅ
ㄆ
ㄇ
ㄉ
ㄋ
ㄌ
ㄍ
ㄎ
ㄏ
ㄒ
ㄚ
ㄛ
ㄞ
ㄟ
ㄢ
ㄤ
ㄥ
ㄧ
ㄨ
ㆍ
㈦
㊣
㎡
㗎
一
丁
七
万
丈
三
上
下
不
与
丐
丑
专
且
丕
世
丘
丙
业
丛
东
丝
丞
丟
両
丢
两
严
並
丧
丨
个
丫
中
丰
串
临
丶
丸
丹
为
主
丼
丽
举
丿
乂
乃
久
么
义
之
乌
乍
乎
乏
乐
乒
乓
乔
乖
乗
乘
乙
乜
九
乞
也
习
乡
书
乩
买
乱
乳
乾
亀
亂
了
予
争
事
二
于
亏
云
互
五
井
亘
亙
亚
些
亜
亞
亟
亡
亢
交
亥
亦
产
亨
亩
享
京
亭
亮
亲
亳
亵
人
亿
什
仁
仃
仄
仅
仆
仇
今
介
仍
从
仏
仑
仓
仔
仕
他
仗
付
仙
仝
仞
仟
代
令
以
仨
仪
们
仮
仰
仲
件
价
任
份
仿
企
伉
伊
伍
伎
伏
伐
休
伕
众
优
伙
会
伝
伞
伟
传
伢
伤
伦
伪
伫
伯
估
伴
伶
伸
伺
似
伽
佃
但
佇
佈
位
低
住
佐
佑
体
佔
何
佗
佘
余
佚
佛
作
佝
佞
佟
你
佢
佣
佤
佥
佩
佬
佯
佰
佳
併
佶
佻
佼
使
侃
侄
來
侈
例
侍
侏
侑
侖
侗
供
依
侠
価
侣
侥
侦
侧
侨
侬
侮
侯
侵
侶
侷
便
係
促
俄
俊
俎
俏
俐
俑
俗
俘
俚
保
俞
俟
俠
信
俨
俩
俪
俬
俭
修
俯
俱
俳
俸
俺
俾
倆
倉
個
倌
倍
倏
們
倒
倔
倖
倘
候
倚
倜
借
倡
値
倦
倩
倪
倫
倬
倭
倶
债
值
倾
偃
假
偈
偉
偌
偎
偏
偕
做
停
健
側
偵
偶
偷
偻
偽
偿
傀
傅
傍
傑
傘
備
傚
傢
傣
傥
储
傩
催
傭
傲
傳
債
傷
傻
傾
僅
働
像
僑
僕
僖
僚
僥
僧
僭
僮
僱
僵
價
僻
儀
儂
億
儆
儉
儋
儒
儕
儘
償
儡
優
儲
儷
儼
儿
兀
允
元
兄
充
兆
兇
先
光
克
兌
免
児
兑
兒
兔
兖
党
兜
兢
入
內
全
兩
八
公
六
兮
兰
共
兲
关
兴
兵
其
具
典
兹
养
兼
兽
冀
内
円
冇
冈
冉
冊
册
再
冏
冒
冕
冗
写
军
农
冠
冢
冤
冥
冨
冪
冬
冯
冰
冲
决
况
冶
冷
冻
冼
冽
冾
净
凄
准
凇
凈
凉
凋
凌
凍
减
凑
凛
凜
凝
几
凡
凤
処
凪
凭
凯
凰
凱
凳
凶
凸
凹
出
击
函
凿
刀
刁
刃
分
切
刈
刊
刍
刎
刑
划
列
刘
则
刚
创
初
删
判
別
刨
利
刪
别
刮
到
制
刷
券
刹
刺
刻
刽
剁
剂
剃
則
剉
削
剋
剌
前
剎
剐
剑
剔
剖
剛
剜
剝
剣
剤
剥
剧
剩
剪
副
割
創
剷
剽
剿
劃
劇
劈
劉
劊
劍
劏
劑
力
劝
办
功
加
务
劣
动
助
努
劫
劭
励
劲
劳
労
劵
効
劾
势
勁
勃
勇
勉
勋
勐
勒
動
勖
勘
務
勛
勝
勞
募
勢
勤
勧
勳
勵
勸
勺
勻
勾
勿
匀
包
匆
匈
匍
匐
匕
化
北
匙
匝
匠
匡
匣
匪
匮
匯
匱
匹
区
医
匾
匿
區
十
千
卅
升
午
卉
半
卍
华
协
卑
卒
卓
協
单
卖
南
単
博
卜
卞
卟
占
卡
卢
卤
卦
卧
卫
卮
卯
印
危
即
却
卵
卷
卸
卻
卿
厂
厄
厅
历
厉
压
厌
厕
厘
厚
厝
原
厢
厥
厦
厨
厩
厭
厮
厲
厳
去
县
叁
参
參
又
叉
及
友
双
反
収
发
叔
取
受
变
叙
叛
叟
叠
叡
叢
口
古
句
另
叨
叩
只
叫
召
叭
叮
可
台
叱
史
右
叵
叶
号
司
叹
叻
叼
叽
吁
吃
各
吆
合
吉
吊
吋
同
名
后
吏
吐
向
吒
吓
吕
吖
吗
君
吝
吞
吟
吠
吡
否
吧
吨
吩
含
听
吭
吮
启
吱
吳
吴
吵
吶
吸
吹
吻
吼
吽
吾
呀
呂
呃
呆
呈
告
呋
呎
呐
呓
呕
呗
员
呛
呜
呢
呤
呦
周
呱
呲
味
呵
呷
呸
呻
呼
命
咀
咁
咂
咄
咆
咋
和
咎
咏
咐
咒
咔
咕
咖
咗
咘
咙
咚
咛
咣
咤
咦
咧
咨
咩
咪
咫
咬
咭
咯
咱
咲
咳
咸
咻
咽
咿
哀
品
哂
哄
哆
哇
哈
哉
哋
哌
响
哎
哏
哐
哑
哒
哔
哗
哟
員
哥
哦
哧
哨
哩
哪
哭
哮
哲
哺
哼
哽
唁
唄
唆
唇
唉
唏
唐
唑
唔
唠
唤
唧
唬
售
唯
唰
唱
唳
唷
唸
唾
啃
啄
商
啉
啊
問
啓
啕
啖
啜
啞
啟
啡
啤
啥
啦
啧
啪
啫
啬
啮
啰
啱
啲
啵
啶
啷
啸
啻
啼
啾
喀
喂
喃
善
喆
喇
喉
喊
喋
喎
喏
喔
喘
喙
喚
喜
喝
喟
喧
喪
喫
喬
單
喰
喱
喲
喳
喵
営
喷
喹
喺
喻
喽
嗅
嗆
嗇
嗎
嗑
嗒
嗓
嗔
嗖
嗚
嗜
嗝
嗟
嗡
嗣
嗤
嗦
嗨
嗪
嗬
嗯
嗰
嗲
嗳
嗶
嗷
嗽
嘀
嘅
嘆
嘈
嘉
嘌
嘍
嘎
嘔
嘖
嘗
嘘
嘚
嘛
嘜
嘞
嘟
嘢
嘣
嘤
嘧
嘩
嘭
嘮
嘯
嘰
嘱
嘲
嘴
嘶
嘸
嘹
嘻
嘿
噁
噌
噎
噓
噔
噗
噙
噜
噠
噢
噤
器
噩
噪
噬
噱
噴
噶
噸
噹
噻
噼
嚀
嚇
嚎
嚏
嚐
嚓
嚕
嚟
嚣
嚥
嚨
嚮
嚴
嚷
嚼
囂
囉
囊
囍
囑
囔
囗
囚
四
囝
回
囟
因
囡
团
団
囤
囧
囪
囫
园
困
囱
囲
図
围
囹
固
国
图
囿
圃
圄
圆
圈
國
圍
圏
園
圓
圖
團
圜
土
圣
圧
在
圩
圭
地
圳
场
圻
圾
址
坂
均
坊
坍
坎
坏
坐
坑
块
坚
坛
坝
坞
坟
坠
坡
坤
坦
坨
坪
坯
坳
坵
坷
垂
垃
垄
型
垒
垚
垛
垠
垢
垣
垦
垩
垫
垭
垮
垵
埂
埃
埋
城
埔
埕
埗
域
埠
埤
埵
執
埸
培
基
埼
堀
堂
堃
堅
堆
堇
堑
堕
堙
堡
堤
堪
堯
堰
報
場
堵
堺
堿
塊
塌
塑
塔
塗
塘
塚
塞
塢
塩
填
塬
塭
塵
塾
墀
境
墅
墉
墊
墒
墓
増
墘
墙
墜
增
墟
墨
墩
墮
墳
墻
墾
壁
壅
壆
壇
壊
壑
壓
壕
壘
壞
壟
壢
壤
壩
士
壬
壮
壯
声
売
壳
壶
壹
壺
壽
处
备
変
复
夏
夔
夕
外
夙
多
夜
够
夠
夢
夥
大
天
太
夫
夭
央
夯
失
头
夷
夸
夹
夺
夾
奂
奄
奇
奈
奉
奋
奎
奏
奐
契
奔
奕
奖
套
奘
奚
奠
奢
奥
奧
奪
奬
奮
女
奴
奶
奸
她
好
如
妃
妄
妆
妇
妈
妊
妍
妒
妓
妖
妘
妙
妝
妞
妣
妤
妥
妨
妩
妪
妮
妲
妳
妹
妻
妾
姆
姉
姊
始
姍
姐
姑
姒
姓
委
姗
姚
姜
姝
姣
姥
姦
姨
姪
姫
姬
姹
姻
姿
威
娃
娄
娅
娆
娇
娉
娑
娓
娘
娛
娜
娟
娠
娣
娥
娩
娱
娲
娴
娶
娼
婀
婁
婆
婉
婊
婕
婚
婢
婦
婧
婪
婭
婴
婵
婶
婷
婺
婿
媒
媚
媛
媞
媧
媲
媳
媽
媾
嫁
嫂
嫉
嫌
嫑
嫔
嫖
嫘
嫚
嫡
嫣
嫦
嫩
嫲
嫵
嫻
嬅
嬉
嬌
嬗
嬛
嬢
嬤
嬪
嬰
嬴
嬷
嬸
嬿
孀
孃
子
孑
孔
孕
孖
字
存
孙
孚
孛
孜
孝
孟
孢
季
孤
学
孩
孪
孫
孬
孰
孱
孳
孵
學
孺
孽
孿
宁
它
宅
宇
守
安
宋
完
宏
宓
宕
宗
官
宙
定
宛
宜
宝
实
実
宠
审
客
宣
室
宥
宦
宪
宫
宮
宰
害
宴
宵
家
宸
容
宽
宾
宿
寂
寄
寅
密
寇
富
寐
寒
寓
寛
寝
寞
察
寡
寢
寥
實
寧
寨
審
寫
寬
寮
寰
寵
寶
寸
对
寺
寻
导
対
寿
封
専
射
将
將
專
尉
尊
尋
對
導
小
少
尔
尕
尖
尘
尚
尝
尤
尧
尬
就
尴
尷
尸
尹
尺
尻
尼
尽
尾
尿
局
屁
层
屄
居
屆
屈
屉
届
屋
屌
屍
屎
屏
屐
屑
展
屜
属
屠
屡
屢
層
履
屬
屯
山
屹
屿
岀
岁
岂
岌
岐
岑
岔
岖
岗
岘
岙
岚
岛
岡
岩
岫
岬
岭
岱
岳
岷
岸
峇
峋
峒
峙
峡
峤
峥
峦
峨
峪
峭
峯
峰
峴
島
峻
峽
崁
崂
崆
崇
崎
崑
崔
崖
崗
崙
崛
崧
崩
崭
崴
崽
嵇
嵊
嵋
嵌
嵐
嵘
嵩
嵬
嵯
嶂
嶄
嶇
嶋
嶙
嶺
嶼
嶽
巅
巍
巒
巔
巖
川
州
巡
巢
工
左
巧
巨
巩
巫
差
己
已
巳
巴
巷
巻
巽
巾
巿
币
市
布
帅
帆
师
希
帐
帑
帕
帖
帘
帚
帛
帜
帝
帥
带
帧
師
席
帮
帯
帰
帳
帶
帷
常
帼
帽
幀
幂
幄
幅
幌
幔
幕
幟
幡
幢
幣
幫
干
平
年
并
幸
幹
幺
幻
幼
幽
幾
广
庁
広
庄
庆
庇
床
序
庐
库
应
底
庖
店
庙
庚
府
庞
废
庠
度
座
庫
庭
庵
庶
康
庸
庹
庾
廁
廂
廃
廈
廉
廊
廓
廖
廚
廝
廟
廠
廢
廣
廬
廳
延
廷
建
廿
开
弁
异
弃
弄
弈
弊
弋
式
弑
弒
弓
弔
引
弗
弘
弛
弟
张
弥
弦
弧
弩
弭
弯
弱
張
強
弹
强
弼
弾
彅
彆
彈
彌
彎
归
当
录
彗
彙
彝
形
彤
彥
彦
彧
彩
彪
彫
彬
彭
彰
影
彷
役
彻
彼
彿
往
征
径
待
徇
很
徉
徊
律
後
徐
徑
徒
従
徕
得
徘
徙
徜
從
徠
御
徨
復
循
徬
微
徳
徴
徵
德
徹
徼
徽
心
必
忆
忌
忍
忏
忐
忑
忒
忖
志
忘
忙
応
忠
忡
忤
忧
忪
快
忱
念
忻
忽
忿
怀
态
怂
怅
怆
怎
怏
怒
怔
怕
怖
怙
怜
思
怠
怡
急
怦
性
怨
怪
怯
怵
总
怼
恁
恃
恆
恋
恍
恐
恒
恕
恙
恚
恢
恣
恤
恥
恨
恩
恪
恫
恬
恭
息
恰
恳
恵
恶
恸
恺
恻
恼
恿
悄
悅
悉
悌
悍
悔
悖
悚
悟
悠
患
悦
您
悩
悪
悬
悯
悱
悲
悴
悵
悶
悸
悻
悼
悽
情
惆
惇
惊
惋
惑
惕
惘
惚
惜
惟
惠
惡
惦
惧
惨
惩
惫
惬
惭
惮
惯
惰
惱
想
惴
惶
惹
惺
愁
愆
愈
愉
愍
意
愕
愚
愛
愜
感
愣
愤
愧
愫
愷
愿
慄
慈
態
慌
慎
慑
慕
慘
慚
慟
慢
慣
慧
慨
慫
慮
慰
慳
慵
慶
慷
慾
憂
憊
憋
憎
憐
憑
憔
憚
憤
憧
憨
憩
憫
憬
憲
憶
憾
懂
懇
懈
應
懊
懋
懑
懒
懦
懲
懵
懶
懷
懸
懺
懼
懾
懿
戀
戈
戊
戌
戍
戎
戏
成
我
戒
戕
或
战
戚
戛
戟
戡
戦
截
戬
戮
戰
戲
戳
戴
戶
户
戸
戻
戾
房
所
扁
扇
扈
扉
手
才
扎
扑
扒
打
扔
払
托
扛
扣
扦
执
扩
扪
扫
扬
扭
扮
扯
扰
扱
扳
扶
批
扼
找
承
技
抄
抉
把
抑
抒
抓
投
抖
抗
折
抚
抛
抜
択
抟
抠
抡
抢
护
报
抨
披
抬
抱
抵
抹
押
抽
抿
拂
拄
担
拆
拇
拈
拉
拋
拌
拍
拎
拐
拒
拓
拔
拖
拗
拘
拙
拚
招
拜
拟
拡
拢
拣
拥
拦
拧
拨
择
括
拭
拮
拯
拱
拳
拴
拷
拼
拽
拾
拿
持
挂
指
挈
按
挎
挑
挖
挙
挚
挛
挝
挞
挟
挠
挡
挣
挤
挥
挨
挪
挫
振
挲
挹
挺
挽
挾
捂
捅
捆
捉
捋
捌
捍
捎
捏
捐
捕
捞
损
捡
换
捣
捧
捨
捩
据
捱
捲
捶
捷
捺
捻
掀
掂
掃
掇
授
掉
掌
掏
掐
排
掖
掘
掙
掛
掠
採
探
掣
接
控
推
掩
措
掬
掰
掲
掳
掴
掷
掸
掺
揀
揃
揄
揆
揉
揍
描
提
插
揖
揚
換
握
揣
揩
揪
揭
揮
援
揶
揸
揹
揽
搀
搁
搂
搅
損
搏
搐
搓
搔
搖
搗
搜
搞
搡
搪
搬
搭
搵
搶
携
搽
摀
摁
摄
摆
摇
摈
摊
摒
摔
摘
摞
摟
摧
摩
摯
摳
摸
摹
摺
摻
撂
撃
撅
撇
撈
撐
撑
撒
撓
撕
撚
撞
撤
撥
撩
撫
撬
播
撮
撰
撲
撵
撷
撸
撻
撼
撿
擀
擁
擂
擄
擅
擇
擊
擋
操
擎
擒
擔
擘
據
擞
擠
擡
擢
擦
擬
擰
擱
擲
擴
擷
擺
擼
擾
攀
攏
攒
攔
攘
攙
攜
攝
攞
攢
攣
攤
攥
攪
攫
攬
支
收
攸
改
攻
放
政
故
效
敌
敍
敎
敏
救
敕
敖
敗
敘
教
敛
敝
敞
敢
散
敦
敬
数
敲
整
敵
敷
數
斂
斃
文
斋
斌
斎
斐
斑
斓
斗
料
斛
斜
斟
斡
斤
斥
斧
斩
斫
斬
断
斯
新
斷
方
於
施
旁
旃
旅
旋
旌
旎
族
旖
旗
无
既
日
旦
旧
旨
早
旬
旭
旮
旱
时
旷
旺
旻
昀
昂
昆
昇
昉
昊
昌
明
昏
易
昔
昕
昙
星
映
春
昧
昨
昭
是
昱
昴
昵
昶
昼
显
晁
時
晃
晉
晋
晌
晏
晒
晓
晔
晕
晖
晗
晚
晝
晞
晟
晤
晦
晨
晩
普
景
晰
晴
晶
晷
智
晾
暂
暄
暇
暈
暉
暌
暐
暑
暖
暗
暝
暢
暧
暨
暫
暮
暱
暴
暸
暹
曄
曆
曇
曉
曖
曙
曜
曝
曠
曦
曬
曰
曲
曳
更
書
曹
曼
曾
替
最
會
月
有
朋
服
朐
朔
朕
朗
望
朝
期
朦
朧
木
未
末
本
札
朮
术
朱
朴
朵
机
朽
杀
杂
权
杆
杈
杉
李
杏
材
村
杓
杖
杜
杞
束
杠
条
来
杨
杭
杯
杰
東
杳
杵
杷
杼
松
板
极
构
枇
枉
枋
析
枕
林
枚
果
枝
枢
枣
枪
枫
枭
枯
枰
枱
枳
架
枷
枸
柄
柏
某
柑
柒
染
柔
柘
柚
柜
柞
柠
柢
查
柩
柬
柯
柱
柳
柴
柵
査
柿
栀
栃
栄
栅
标
栈
栉
栋
栎
栏
树
栓
栖
栗
校
栩
株
样
核
根
格
栽
栾
桀
桁
桂
桃
桅
框
案
桉
桌
桎
桐
桑
桓
桔
桜
桠
桡
桢
档
桥
桦
桧
桨
桩
桶
桿
梁
梅
梆
梏
梓
梗
條
梟
梢
梦
梧
梨
梭
梯
械
梳
梵
梶
检
棂
棄
棉
棋
棍
棒
棕
棗
棘
棚
棟
棠
棣
棧
森
棱
棲
棵
棹
棺
椁
椅
椋
植
椎
椒
検
椪
椭
椰
椹
椽
椿
楂
楊
楓
楔
楚
楝
楞
楠
楣
楨
楫
業
楮
極
楷
楸
楹
楼
楽
概
榄
榆
榈
榉
榔
榕
榖
榛
榜
榨
榫
榭
榮
榱
榴
榷
榻
槁
槃
構
槌
槍
槎
槐
槓
様
槛
槟
槤
槭
槲
槳
槻
槽
槿
樁
樂
樊
樑
樓
標
樞
樟
模
樣
権
横
樫
樯
樱
樵
樸
樹
樺
樽
樾
橄
橇
橋
橐
橘
橙
機
橡
橢
橫
橱
橹
橼
檀
檄
檎
檐
檔
檗
檜
檢
檬
檯
檳
檸
檻
櫃
櫚
櫛
櫥
櫸
櫻
欄
權
欒
欖
欠
次
欢
欣
欧
欲
欸
欺
欽
款
歆
歇
歉
歌
歎
歐
歓
歙
歛
歡
止
正
此
步
武
歧
歩
歪
歯
歲
歳
歴
歷
歸
歹
死
歼
殁
殃
殆
殇
殉
殊
残
殒
殓
殖
殘
殞
殡
殤
殭
殯
殲
殴
段
殷
殺
殼
殿
毀
毁
毂
毅
毆
毋
母
毎
每
毒
毓
比
毕
毗
毘
毙
毛
毡
毫
毯
毽
氈
氏
氐
民
氓
气
氖
気
氙
氛
氟
氡
氢
氣
氤
氦
氧
氨
氪
氫
氮
氯
氰
氲
水
氷
永
氹
氾
汀
汁
求
汆
汇
汉
汎
汐
汕
汗
汙
汛
汝
汞
江
池
污
汤
汨
汩
汪
汰
汲
汴
汶
汹
決
汽
汾
沁
沂
沃
沅
沈
沉
沌
沏
沐
沒
沓
沖
沙
沛
沟
没
沢
沣
沥
沦
沧
沪
沫
沭
沮
沱
河
沸
油
治
沼
沽
沾
沿
況
泄
泉
泊
泌
泓
法
泗
泛
泞
泠
泡
波
泣
泥
注
泪
泫
泮
泯
泰
泱
泳
泵
泷
泸
泻
泼
泽
泾
洁
洄
洋
洒
洗
洙
洛
洞
津
洩
洪
洮
洱
洲
洵
洶
洸
洹
活
洼
洽
派
流
浃
浄
浅
浆
浇
浊
测
济
浏
浑
浒
浓
浔
浙
浚
浜
浣
浦
浩
浪
浬
浮
浯
浴
海
浸
涂
涅
涇
消
涉
涌
涎
涓
涔
涕
涙
涛
涝
涞
涟
涠
涡
涣
涤
润
涧
涨
涩
涪
涮
涯
液
涵
涸
涼
涿
淀
淄
淅
淆
淇
淋
淌
淑
淒
淖
淘
淙
淚
淞
淡
淤
淦
淨
淩
淪
淫
淬
淮
深
淳
淵
混
淹
淺
添
淼
清
済
渉
渊
渋
渍
渎
渐
渔
渗
渙
渚
減
渝
渠
渡
渣
渤
渥
渦
温
測
渭
港
渲
渴
游
渺
渾
湃
湄
湊
湍
湖
湘
湛
湟
湧
湫
湮
湯
湳
湾
湿
満
溃
溅
溉
溏
源
準
溜
溝
溟
溢
溥
溧
溪
溫
溯
溱
溴
溶
溺
溼
滁
滂
滄
滅
滇
滋
滌
滑
滓
滔
滕
滙
滚
滝
滞
滟
满
滢
滤
滥
滦
滨
滩
滬
滯
滲
滴
滷
滸
滾
滿
漁
漂
漆
漉
漏
漓
演
漕
漠
漢
漣
漩
漪
漫
漬
漯
漱
漲
漳
漸
漾
漿
潆
潇
潋
潍
潑
潔
潘
潛
潜
潞
潟
潢
潤
潦
潧
潭
潮
潰
潴
潸
潺
潼
澀
澄
澆
澈
澍
澎
澗
澜
澡
澤
澧
澱
澳
澹
激
濁
濂
濃
濑
濒
濕
濘
濛
濟
濠
濡
濤
濫
濬
濮
濯
濱
濺
濾
瀅
瀆
瀉
瀋
瀏
瀑
瀕
瀘
瀚
瀛
瀝
瀞
瀟
瀧
瀨
瀬
瀰
瀾
灌
灏
灑
灘
灝
灞
灣
火
灬
灭
灯
灰
灵
灶
灸
灼
災
灾
灿
炀
炁
炅
炉
炊
炎
炒
炔
炕
炖
炙
炜
炫
炬
炭
炮
炯
炳
炷
炸
点
為
炼
炽
烁
烂
烃
烈
烊
烏
烘
烙
烛
烟
烤
烦
烧
烨
烩
烫
烬
热
烯
烷
烹
烽
焉
焊
焕
焖
焗
焘
焙
焚
焜
無
焦
焯
焰
焱
然
焼
煅
煉
煊
煌
煎
煒
煖
煙
煜
煞
煤
煥
煦
照
煨
煩
煮
煲
煸
煽
熄
熊
熏
熒
熔
熙
熟
熠
熨
熬
熱
熵
熹
熾
燁
燃
燄
燈
燉
燊
燎
燒
燔
燕
燙
燜
營
燥
燦
燧
燭
燮
燴
燻
燼
燿
爆
爍
爐
爛
爪
爬
爭
爰
爱
爲
爵
父
爷
爸
爹
爺
爻
爽
爾
牆
片
版
牌
牍
牒
牙
牛
牝
牟
牠
牡
牢
牦
牧
物
牯
牲
牴
牵
特
牺
牽
犀
犁
犄
犊
犍
犒
犢
犧
犬
犯
状
犷
犸
犹
狀
狂
狄
狈
狎
狐
狒
狗
狙
狞
狠
狡
狩
独
狭
狮
狰
狱
狸
狹
狼
狽
猎
猕
猖
猗
猙
猛
猜
猝
猥
猩
猪
猫
猬
献
猴
猶
猷
猾
猿
獄
獅
獎
獐
獒
獗
獠
獣
獨
獭
獰
獲
獵
獷
獸
獺
獻
獼
獾
玄
率
玉
王
玑
玖
玛
玟
玠
玥
玩
玫
玮
环
现
玲
玳
玷
玺
玻
珀
珂
珅
珈
珉
珊
珍
珏
珐
珑
珙
珞
珠
珣
珥
珩
珪
班
珮
珲
珺
現
球
琅
理
琇
琉
琊
琍
琏
琐
琛
琢
琥
琦
琨
琪
琬
琮
琰
琲
琳
琴
琵
琶
琺
琼
瑀
瑁
瑄
瑋
瑕
瑗
瑙
瑚
瑛
瑜
瑞
瑟
瑠
瑣
瑤
瑩
瑪
瑯
瑰
瑶
瑾
璀
璁
璃
璇
璉
璋
璎
璐
璜
璞
璟
璧
璨
環
璽
璿
瓊
瓏
瓒
瓜
瓢
瓣
瓤
瓦
瓮
瓯
瓴
瓶
瓷
甄
甌
甕
甘
甙
甚
甜
生
產
産
甥
甦
用
甩
甫
甬
甭
甯
田
由
甲
申
电
男
甸
町
画
甾
畀
畅
界
畏
畑
畔
留
畜
畝
畢
略
畦
番
畫
異
畲
畳
畴
當
畸
畹
畿
疆
疇
疊
疏
疑
疔
疖
疗
疙
疚
疝
疟
疡
疣
疤
疥
疫
疮
疯
疱
疲
疳
疵
疸
疹
疼
疽
疾
痂
病
症
痈
痉
痊
痍
痒
痔
痕
痘
痙
痛
痞
痠
痢
痣
痤
痧
痨
痪
痫
痰
痱
痴
痹
痺
痼
痿
瘀
瘁
瘋
瘍
瘓
瘘
瘙
瘟
瘠
瘡
瘢
瘤
瘦
瘧
瘩
瘪
瘫
瘴
瘸
瘾
療
癇
癌
癒
癖
癜
癞
癡
癢
癣
癥
癫
癬
癮
癱
癲
癸
発
登
發
白
百
皂
的
皆
皇
皈
皋
皎
皑
皓
皖
皙
皚
皮
皰
皱
皴
皺
皿
盂
盃
盅
盆
盈
益
盎
盏
盐
监
盒
盔
盖
盗
盘
盛
盜
盞
盟
盡
監
盤
盥
盧
盪
目
盯
盱
盲
直
相
盹
盼
盾
省
眈
眉
看
県
眙
眞
真
眠
眦
眨
眩
眯
眶
眷
眸
眺
眼
眾
着
睁
睇
睏
睐
睑
睛
睜
睞
睡
睢
督
睥
睦
睨
睪
睫
睬
睹
睽
睾
睿
瞄
瞅
瞇
瞋
瞌
瞎
瞑
瞒
瞓
瞞
瞟
瞠
瞥
瞧
瞩
瞪
瞬
瞭
瞰
瞳
瞻
瞼
瞿
矇
矍
矗
矚
矛
矜
矢
矣
知
矩
矫
短
矮
矯
石
矶
矽
矾
矿
码
砂
砌
砍
砒
研
砖
砗
砚
砝
砣
砥
砧
砭
砰
砲
破
砷
砸
砺
砼
砾
础
硅
硐
硒
硕
硝
硫
硬
确
硯
硼
碁
碇
碉
碌
碍
碎
碑
碓
碗
碘
碚
碛
碟
碣
碧
碩
碰
碱
碳
碴
確
碼
碾
磁
磅
磊
磋
磐
磕
磚
磡
磨
磬
磯
磲
磷
磺
礁
礎
礙
礡
礦
礪
礫
礴
示
礼
社
祀
祁
祂
祇
祈
祉
祎
祐
祕
祖
祗
祚
祛
祜
祝
神
祟
祠
祢
祥
票
祭
祯
祷
祸
祺
祿
禀
禁
禄
禅
禍
禎
福
禛
禦
禧
禪
禮
禱
禹
禺
离
禽
禾
禿
秀
私
秃
秆
秉
秋
种
科
秒
秘
租
秣
秤
秦
秧
秩
秭
积
称
秸
移
秽
稀
稅
程
稍
税
稔
稗
稚
稜
稞
稟
稠
稣
種
稱
稲
稳
稷
稹
稻
稼
稽
稿
穀
穂
穆
穌
積
穎
穗
穢
穩
穫
穴
究
穷
穹
空
穿
突
窃
窄
窈
窍
窑
窒
窓
窕
窖
窗
窘
窜
窝
窟
窠
窥
窦
窨
窩
窪
窮
窯
窺
窿
竄
竅
竇
竊
立
竖
站
竜
竞
竟
章
竣
童
竭
端
競
竹
竺
竽
竿
笃
笆
笈
笋
笏
笑
笔
笙
笛
笞
笠
符
笨
第
笹
笺
笼
筆
等
筊
筋
筍
筏
筐
筑
筒
答
策
筛
筝
筠
筱
筲
筵
筷
筹
签
简
箇
箋
箍
箏
箐
箔
箕
算
箝
管
箩
箫
箭
箱
箴
箸
節
篁
範
篆
篇
築
篑
篓
篙
篝
篠
篡
篤
篩
篪
篮
篱
篷
簇
簌
簍
簡
簦
簧
簪
簫
簷
簸
簽
簾
簿
籁
籃
籌
籍
籐
籟
籠
籤
籬
籮
籲
米
类
籼
籽
粄
粉
粑
粒
粕
粗
粘
粟
粤
粥
粧
粪
粮
粱
粲
粳
粵
粹
粼
粽
精
粿
糅
糊
糍
糕
糖
糗
糙
糜
糞
糟
糠
糧
糬
糯
糰
糸
系
糾
紀
紂
約
紅
紉
紊
紋
納
紐
紓
純
紗
紘
紙
級
紛
紜
素
紡
索
紧
紫
紮
累
細
紳
紹
紺
終
絃
組
絆
経
結
絕
絞
絡
絢
給
絨
絮
統
絲
絳
絵
絶
絹
綁
綏
綑
經
継
続
綜
綠
綢
綦
綫
綬
維
綱
網
綴
綵
綸
綺
綻
綽
綾
綿
緊
緋
総
緑
緒
緘
線
緝
緞
締
緣
編
緩
緬
緯
練
緹
緻
縁
縄
縈
縛
縝
縣
縫
縮
縱
縴
縷
總
績
繁
繃
繆
繇
繋
織
繕
繚
繞
繡
繩
繪
繫
繭
繳
繹
繼
繽
纂
續
纍
纏
纓
纔
纖
纜
纠
红
纣
纤
约
级
纨
纪
纫
纬
纭
纯
纰
纱
纲
纳
纵
纶
纷
纸
纹
纺
纽
纾
线
绀
练
组
绅
细
织
终
绊
绍
绎
经
绑
绒
结
绔
绕
绘
给
绚
绛
络
绝
绞
统
绡
绢
绣
绥
绦
继
绩
绪
绫
续
绮
绯
绰
绳
维
绵
绶
绷
绸
绻
综
绽
绾
绿
缀
缄
缅
缆
缇
缈
缉
缎
缓
缔
缕
编
缘
缙
缚
缜
缝
缠
缢
缤
缥
缨
缩
缪
缭
缮
缰
缱
缴
缸
缺
缽
罂
罄
罌
罐
网
罔
罕
罗
罚
罡
罢
罩
罪
置
罰
署
罵
罷
罹
羁
羅
羈
羊
羌
美
羔
羚
羞
羟
羡
羣
群
羥
羧
羨
義
羯
羲
羸
羹
羽
羿
翁
翅
翊
翌
翎
習
翔
翘
翟
翠
翡
翦
翩
翰
翱
翳
翹
翻
翼
耀
老
考
耄
者
耆
耋
而
耍
耐
耒
耕
耗
耘
耙
耦
耨
耳
耶
耷
耸
耻
耽
耿
聂
聆
聊
聋
职
聒
联
聖
聘
聚
聞
聪
聯
聰
聲
聳
聴
聶
職
聽
聾
聿
肃
肄
肅
肆
肇
肉
肋
肌
肏
肓
肖
肘
肚
肛
肝
肠
股
肢
肤
肥
肩
肪
肮
肯
肱
育
肴
肺
肽
肾
肿
胀
胁
胃
胄
胆
背
胍
胎
胖
胚
胛
胜
胝
胞
胡
胤
胥
胧
胫
胭
胯
胰
胱
胳
胴
胶
胸
胺
能
脂
脅
脆
脇
脈
脉
脊
脍
脏
脐
脑
脓
脖
脘
脚
脛
脣
脩
脫
脯
脱
脲
脳
脸
脹
脾
腆
腈
腊
腋
腌
腎
腐
腑
腓
腔
腕
腥
腦
腩
腫
腭
腮
腰
腱
腳
腴
腸
腹
腺
腻
腼
腾
腿
膀
膈
膊
膏
膑
膘
膚
膛
膜
膝
膠
膦
膨
膩
膳
膺
膻
膽
膾
膿
臀
臂
臃
臆
臉
臊
臍
臓
臘
臟
臣
臥
臧
臨
自
臬
臭
至
致
臺
臻
臼
臾
舀
舂
舅
舆
與
興
舉
舊
舌
舍
舎
舐
舒
舔
舖
舗
舛
舜
舞
舟
航
舫
般
舰
舱
舵
舶
舷
舸
船
舺
舾
艇
艋
艘
艙
艦
艮
良
艰
艱
色
艳
艷
艹
艺
艾
节
芃
芈
芊
芋
芍
芎
芒
芙
芜
芝
芡
芥
芦
芩
芪
芫
芬
芭
芮
芯
花
芳
芷
芸
芹
芻
芽
芾
苁
苄
苇
苋
苍
苏
苑
苒
苓
苔
苕
苗
苛
苜
苞
苟
苡
苣
若
苦
苫
苯
英
苷
苹
苻
茁
茂
范
茄
茅
茉
茎
茏
茗
茜
茧
茨
茫
茬
茭
茯
茱
茲
茴
茵
茶
茸
茹
茼
荀
荃
荆
草
荊
荏
荐
荒
荔
荖
荘
荚
荞
荟
荠
荡
荣
荤
荥
荧
荨
荪
荫
药
荳
荷
荸
荻
荼
荽
莅
莆
莉
莊
莎
莒
莓
莖
莘
莞
莠
莢
莧
莪
莫
莱
莲
莴
获
莹
莺
莽
莿
菀
菁
菅
菇
菈
菊
菌
菏
菓
菖
菘
菜
菟
菠
菡
菩
華
菱
菲
菸
菽
萁
萃
萄
萊
萋
萌
萍
萎
萘
萝
萤
营
萦
萧
萨
萩
萬
萱
萵
萸
萼
落
葆
葉
著
葚
葛
葡
董
葦
葩
葫
葬
葭
葯
葱
葳
葵
葷
葺
蒂
蒋
蒐
蒔
蒙
蒜
蒞
蒟
蒡
蒨
蒲
蒸
蒹
蒻
蒼
蒿
蓁
蓄
蓆
蓉
蓋
蓑
蓓
蓖
蓝
蓟
蓦
蓬
蓮
蓼
蓿
蔑
蔓
蔔
蔗
蔘
蔚
蔡
蔣
蔥
蔫
蔬
蔭
蔵
蔷
蔺
蔻
蔼
蔽
蕁
蕃
蕈
蕉
蕊
蕎
蕙
蕤
蕨
蕩
蕪
蕭
蕲
蕴
蕻
蕾
薄
薅
薇
薈
薊
薏
薑
薔
薙
薛
薦
薨
薩
薪
薬
薯
薰
薹
藉
藍
藏
藐
藓
藕
藜
藝
藤
藥
藩
藹
藻
藿
蘆
蘇
蘊
蘋
蘑
蘚
蘭
蘸
蘼
蘿
虎
虏
虐
虑
虔
處
虚
虛
虜
虞
號
虢
虧
虫
虬
虱
虹
虻
虽
虾
蚀
蚁
蚂
蚊
蚌
蚓
蚕
蚜
蚝
蚣
蚤
蚩
蚪
蚯
蚱
蚵
蛀
蛆
蛇
蛊
蛋
蛎
蛐
蛔
蛙
蛛
蛟
蛤
蛭
蛮
蛰
蛳
蛹
蛻
蛾
蜀
蜂
蜃
蜆
蜇
蜈
蜊
蜍
蜒
蜓
蜕
蜗
蜘
蜚
蜜
蜡
蜢
蜥
蜱
蜴
蜷
蜻
蜿
蝇
蝈
蝉
蝌
蝎
蝕
蝗
蝙
蝟
蝠
蝦
蝨
蝴
蝶
蝸
蝼
螂
螃
融
螞
螢
螨
螯
螳
螺
蟀
蟄
蟆
蟋
蟎
蟑
蟒
蟠
蟬
蟲
蟹
蟻
蟾
蠅
蠍
蠔
蠕
蠛
蠟
蠡
蠢
蠣
蠱
蠶
蠹
蠻
血
衄
衅
衆
行
衍
術
衔
街
衙
衛
衝
衞
衡
衢
衣
补
表
衩
衫
衬
衮
衰
衲
衷
衹
衾
衿
袁
袂
袄
袅
袈
袋
袍
袒
袖
袜
袞
袤
袪
被
袭
袱
裁
裂
装
裆
裊
裏
裔
裕
裘
裙
補
裝
裟
裡
裤
裨
裱
裳
裴
裸
裹
製
裾
褂
複
褐
褒
褓
褔
褚
褥
褪
褫
褲
褶
褻
襁
襄
襟
襠
襪
襬
襯
襲
西
要
覃
覆
覇
見
規
覓
視
覚
覦
覧
親
覬
観
覷
覺
覽
觀
见
观
规
觅
视
览
觉
觊
觎
觐
觑
角
觞
解
觥
触
觸
言
訂
計
訊
討
訓
訕
訖
託
記
訛
訝
訟
訣
訥
訪
設
許
訳
訴
訶
診
註
証
詆
詐
詔
評
詛
詞
詠
詡
詢
詣
試
詩
詫
詬
詭
詮
詰
話
該
詳
詹
詼
誅
誇
誉
誌
認
誓
誕
誘
語
誠
誡
誣
誤
誥
誦
誨
說
説
読
誰
課
誹
誼
調
諄
談
請
諏
諒
論
諗
諜
諡
諦
諧
諫
諭
諮
諱
諳
諷
諸
諺
諾
謀
謁
謂
謄
謊
謎
謐
謔
謗
謙
講
謝
謠
謨
謬
謹
謾
譁
證
譎
譏
識
譙
譚
譜
警
譬
譯
議
譲
譴
護
譽
讀
變
讓
讚
讞
计
订
认
讥
讧
讨
让
讪
讫
训
议
讯
记
讲
讳
讴
讶
讷
许
讹
论
讼
讽
设
访
诀
证
诃
评
诅
识
诈
诉
诊
诋
词
诏
译
试
诗
诘
诙
诚
诛
话
诞
诟
诠
诡
询
诣
诤
该
详
诧
诩
诫
诬
语
误
诰
诱
诲
说
诵
诶
请
诸
诺
读
诽
课
诿
谀
谁
调
谄
谅
谆
谈
谊
谋
谌
谍
谎
谏
谐
谑
谒
谓
谔
谕
谗
谘
谙
谚
谛
谜
谟
谢
谣
谤
谥
谦
谧
谨
谩
谪
谬
谭
谯
谱
谲
谴
谶
谷
豁
豆
豇
豈
豉
豊
豌
豎
豐
豔
豚
象
豢
豪
豫
豬
豹
豺
貂
貅
貌
貓
貔
貘
貝
貞
負
財
貢
貧
貨
販
貪
貫
責
貯
貰
貳
貴
貶
買
貸
費
貼
貽
貿
賀
賁
賂
賃
賄
資
賈
賊
賑
賓
賜
賞
賠
賡
賢
賣
賤
賦
質
賬
賭
賴
賺
購
賽
贅
贈
贊
贍
贏
贓
贖
贛
贝
贞
负
贡
财
责
贤
败
账
货
质
贩
贪
贫
贬
购
贮
贯
贰
贱
贲
贴
贵
贷
贸
费
贺
贻
贼
贾
贿
赁
赂
赃
资
赅
赈
赊
赋
赌
赎
赏
赐
赓
赔
赖
赘
赚
赛
赝
赞
赠
赡
赢
赣
赤
赦
赧
赫
赭
走
赳
赴
赵
赶
起
趁
超
越
趋
趕
趙
趟
趣
趨
足
趴
趵
趸
趺
趾
跃
跄
跆
跋
跌
跎
跑
跖
跚
跛
距
跟
跡
跤
跨
跩
跪
路
跳
践
跷
跹
跺
跻
踉
踊
踌
踏
踐
踝
踞
踟
踢
踩
踪
踮
踱
踴
踵
踹
蹂
蹄
蹇
蹈
蹉
蹊
蹋
蹑
蹒
蹙
蹟
蹣
蹤
蹦
蹩
蹬
蹭
蹲
蹴
蹶
蹺
蹼
蹿
躁
躇
躉
躊
躋
躍
躏
躪
身
躬
躯
躲
躺
軀
車
軋
軌
軍
軒
軟
転
軸
軼
軽
軾
較
載
輒
輓
輔
輕
輛
輝
輟
輩
輪
輯
輸
輻
輾
輿
轄
轅
轆
轉
轍
轎
轟
车
轧
轨
轩
转
轭
轮
软
轰
轲
轴
轶
轻
轼
载
轿
较
辄
辅
辆
辇
辈
辉
辊
辍
辐
辑
输
辕
辖
辗
辘
辙
辛
辜
辞
辟
辣
辦
辨
辩
辫
辭
辮
辯
辰
辱
農
边
辺
辻
込
辽
达
迁
迂
迄
迅
过
迈
迎
运
近
返
还
这
进
远
违
连
迟
迢
迤
迥
迦
迩
迪
迫
迭
述
迴
迷
迸
迹
迺
追
退
送
适
逃
逅
逆
选
逊
逍
透
逐
递
途
逕
逗
這
通
逛
逝
逞
速
造
逢
連
逮
週
進
逵
逶
逸
逻
逼
逾
遁
遂
遅
遇
遊
運
遍
過
遏
遐
遑
遒
道
達
違
遗
遙
遛
遜
遞
遠
遢
遣
遥
遨
適
遭
遮
遲
遴
遵
遶
遷
選
遺
遼
遽
避
邀
邁
邂
邃
還
邇
邈
邊
邋
邏
邑
邓
邕
邛
邝
邢
那
邦
邨
邪
邬
邮
邯
邰
邱
邳
邵
邸
邹
邺
邻
郁
郅
郊
郎
郑
郜
郝
郡
郢
郤
郦
郧
部
郫
郭
郴
郵
郷
郸
都
鄂
鄉
鄒
鄔
鄙
鄞
鄢
鄧
鄭
鄰
鄱
鄲
鄺
酉
酊
酋
酌
配
酐
酒
酗
酚
酝
酢
酣
酥
酩
酪
酬
酮
酯
酰
酱
酵
酶
酷
酸
酿
醃
醇
醉
醋
醍
醐
醒
醚
醛
醜
醞
醣
醪
醫
醬
醮
醯
醴
醺
釀
釁
采
釉
释
釋
里
重
野
量
釐
金
釗
釘
釜
針
釣
釦
釧
釵
鈀
鈉
鈍
鈎
鈔
鈕
鈞
鈣
鈦
鈪
鈴
鈺
鈾
鉀
鉄
鉅
鉉
鉑
鉗
鉚
鉛
鉤
鉴
鉻
銀
銃
銅
銑
銓
銖
銘
銜
銬
銭
銮
銳
銷
銹
鋁
鋅
鋒
鋤
鋪
鋰
鋸
鋼
錄
錐
錘
錚
錠
錢
錦
錨
錫
錮
錯
録
錳
錶
鍊
鍋
鍍
鍛
鍥
鍰
鍵
鍺
鍾
鎂
鎊
鎌
鎏
鎔
鎖
鎗
鎚
鎧
鎬
鎮
鎳
鏈
鏖
鏗
鏘
鏞
鏟
鏡
鏢
鏤
鏽
鐘
鐮
鐲
鐳
鐵
鐸
鐺
鑄
鑊
鑑
鑒
鑣
鑫
鑰
鑲
鑼
鑽
鑾
鑿
针
钉
钊
钎
钏
钒
钓
钗
钙
钛
钜
钝
钞
钟
钠
钡
钢
钣
钤
钥
钦
钧
钨
钩
钮
钯
钰
钱
钳
钴
钵
钺
钻
钼
钾
钿
铀
铁
铂
铃
铄
铅
铆
铉
铎
铐
铛
铜
铝
铠
铡
铢
铣
铤
铨
铩
铬
铭
铮
铰
铲
铵
银
铸
铺
链
铿
销
锁
锂
锄
锅
锆
锈
锉
锋
锌
锏
锐
锑
错
锚
锟
锡
锢
锣
锤
锥
锦
锭
键
锯
锰
锲
锵
锹
锺
锻
镀
镁
镂
镇
镉
镌
镍
镐
镑
镕
镖
镗
镛
镜
镣
镭
镯
镰
镳
镶
長
长
門
閃
閉
開
閎
閏
閑
閒
間
閔
閘
閡
関
閣
閥
閨
閩
閱
閲
閹
閻
閾
闆
闇
闊
闌
闍
闔
闕
闖
闘
關
闡
闢
门
闪
闫
闭
问
闯
闰
闲
间
闵
闷
闸
闹
闺
闻
闽
闾
阀
阁
阂
阅
阆
阇
阈
阉
阎
阐
阑
阔
阕
阖
阙
阚
阜
队
阡
阪
阮
阱
防
阳
阴
阵
阶
阻
阿
陀
陂
附
际
陆
陇
陈
陋
陌
降
限
陕
陛
陝
陞
陟
陡
院
陣
除
陨
险
陪
陰
陲
陳
陵
陶
陷
陸
険
陽
隅
隆
隈
隊
隋
隍
階
随
隐
隔
隕
隘
隙
際
障
隠
隣
隧
隨
險
隱
隴
隶
隸
隻
隼
隽
难
雀
雁
雄
雅
集
雇
雉
雋
雌
雍
雎
雏
雑
雒
雕
雖
雙
雛
雜
雞
離
難
雨
雪
雯
雰
雲
雳
零
雷
雹
電
雾
需
霁
霄
霆
震
霈
霉
霊
霍
霎
霏
霑
霓
霖
霜
霞
霧
霭
霰
露
霸
霹
霽
霾
靂
靄
靈
青
靓
靖
静
靚
靛
靜
非
靠
靡
面
靥
靦
革
靳
靴
靶
靼
鞅
鞋
鞍
鞏
鞑
鞘
鞠
鞣
鞦
鞭
韆
韋
韌
韓
韜
韦
韧
韩
韬
韭
音
韵
韶
韻
響
頁
頂
頃
項
順
須
頌
預
頑
頒
頓
頗
領
頜
頡
頤
頫
頭
頰
頷
頸
頹
頻
頼
顆
題
額
顎
顏
顔
願
顛
類
顧
顫
顯
顱
顴
页
顶
顷
项
顺
须
顼
顽
顾
顿
颁
颂
预
颅
领
颇
颈
颉
颊
颌
颍
颐
频
颓
颔
颖
颗
题
颚
颛
颜
额
颞
颠
颡
颢
颤
颦
颧
風
颯
颱
颳
颶
颼
飄
飆
风
飒
飓
飕
飘
飙
飚
飛
飞
食
飢
飨
飩
飪
飯
飲
飼
飽
飾
餃
餅
餉
養
餌
餐
餒
餓
餘
餚
餛
餞
餡
館
餮
餵
餾
饅
饈
饋
饌
饍
饑
饒
饕
饗
饞
饥
饨
饪
饬
饭
饮
饯
饰
饱
饲
饴
饵
饶
饷
饺
饼
饽
饿
馀
馁
馄
馅
馆
馈
馋
馍
馏
馒
馔
首
馗
香
馥
馨
馬
馭
馮
馳
馴
駁
駄
駅
駆
駐
駒
駕
駛
駝
駭
駱
駿
騁
騎
騏
験
騙
騨
騰
騷
驀
驅
驊
驍
驒
驕
驗
驚
驛
驟
驢
驥
马
驭
驮
驯
驰
驱
驳
驴
驶
驷
驸
驹
驻
驼
驾
驿
骁
骂
骄
骅
骆
骇
骈
骊
骋
验
骏
骐
骑
骗
骚
骛
骜
骞
骠
骡
骤
骥
骧
骨
骯
骰
骶
骷
骸
骼
髂
髅
髋
髏
髒
髓
體
髖
高
髦
髪
髮
髯
髻
鬃
鬆
鬍
鬓
鬚
鬟
鬢
鬣
鬥
鬧
鬱
鬼
魁
魂
魄
魅
魇
魍
魏
魔
魘
魚
魯
魷
鮑
鮨
鮪
鮭
鮮
鯉
鯊
鯖
鯛
鯨
鯰
鯽
鰍
鰓
鰭
鰲
鰻
鰾
鱈
鱉
鱔
鱗
鱷
鱸
鱼
鱿
鲁
鲈
鲍
鲑
鲛
鲜
鲟
鲢
鲤
鲨
鲫
鲱
鲲
鲶
鲷
鲸
鳃
鳄
鳅
鳌
鳍
鳕
鳖
鳗
鳝
鳞
鳥
鳩
鳳
鳴
鳶
鴉
鴕
鴛
鴦
鴨
鴻
鴿
鵑
鵜
鵝
鵡
鵬
鵰
鵲
鶘
鶩
鶯
鶴
鷗
鷲
鷹
鷺
鸚
鸞
鸟
鸠
鸡
鸢
鸣
鸥
鸦
鸨
鸪
鸭
鸯
鸳
鸵
鸽
鸾
鸿
鹂
鹃
鹄
鹅
鹈
鹉
鹊
鹌
鹏
鹑
鹕
鹘
鹜
鹞
鹤
鹦
鹧
鹫
鹭
鹰
鹳
鹵
鹹
鹼
鹽
鹿
麂
麋
麒
麓
麗
麝
麟
麥
麦
麩
麴
麵
麸
麺
麻
麼
麽
麾
黃
黄
黍
黎
黏
黑
黒
黔
默
黛
黜
黝
點
黠
黨
黯
黴
鼋
鼎
鼐
鼓
鼠
鼬
鼹
鼻
鼾
齁
齊
齋
齐
齒
齡
齢
齣
齦
齿
龄
龅
龈
龊
龋
龌
龍
龐
龔
龕
龙
龚
龛
龜
龟
︰
︱
︶
︿
﹁
﹂
﹍
﹏
﹐
﹑
﹒
﹔
﹕
﹖
﹗
﹙
﹚
﹝
﹞
﹡
﹣
！
＂
＃
＄
％
＆
＇
（
）
＊
＋
，
－
．
／
０
１
２
３
４
５
６
７
８
９
：
；
＜
＝
＞
？
＠
［
＼
］
＾
＿
｀
ａ
ｂ
ｃ
ｄ
ｅ
ｆ
ｇ
ｈ
ｉ
ｊ
ｋ
ｌ
ｍ
ｎ
ｏ
ｐ
ｑ
ｒ
ｓ
ｔ
ｕ
ｖ
ｗ
ｘ
ｙ
ｚ
｛
｜
｝
～
｡
｢
｣
､
･
ｯ
ｰ
ｲ
ｸ
ｼ
ｽ
ﾄ
ﾉ
ﾌ
ﾗ
ﾙ
ﾝ
ﾞ
ﾟ
￣
￥
👍
🔥
😂
😎
...
yam
10
2017
12
11
2016
20
30
15
06
lofter
##s
2015
by
16
14
18
13
24
17
2014
21
##0
22
19
25
23
com
100
00
05
2013
##a
03
09
08
28
##2
50
01
04
##1
27
02
2012
##3
26
##e
07
##8
##5
##6
##4
##9
##7
29
2011
40
##t
2010
##o
##d
##i
2009
##n
app
www
the
##m
31
##c
##l
##y
##r
##g
2008
60
http
200
qq
##p
80
##f
google
pixnet
90
cookies
tripadvisor
500
##er
##k
35
##h
facebook
2007
2000
70
##b
of
##x
##u
45
300
iphone
32
1000
2006
48
ip
36
in
38
3d
##w
##ing
55
ctrip
##on
##v
33
##の
to
34
400
id
2005
it
37
windows
llc
top
99
42
39
000
led
at
##an
41
51
52
46
49
43
53
44
##z
android
58
and
59
2004
56
vr
##か
5000
2003
47
blogthis
twitter
54
##le
150
ok
2018
57
75
cn
no
ios
##in
##mm
##00
800
on
te
3000
65
2001
360
95
ig
lv
120
##ng
##を
##us
##に
pc
てす
──
600
##te
85
2002
88
##ed
html
ncc
wifi
email
64
blog
is
##10
##て
mail
online
##al
dvd
##ic
studio
##は
##℃
##ia
##と
line
vip
72
##q
98
##ce
##en
for
##is
##ra
##es
##j
usb
net
cp
1999
asia
4g
##cm
diy
new
3c
##お
ta
66
language
vs
apple
tw
86
web
##ne
ipad
62
you
##re
101
68
##tion
ps
de
bt
pony
atm
##2017
1998
67
##ch
ceo
##or
go
##na
av
pro
cafe
96
pinterest
97
63
pixstyleme3c
##ta
more
said
##2016
1997
mp3
700
##ll
nba
jun
##20
92
tv
1995
pm
61
76
nbsp
250
##ie
linux
##ma
cd
110
hd
##17
78
##ion
77
6000
am
##th
##st
94
##se
##et
69
180
gdp
my
105
81
abc
89
flash
79
one
93
1990
1996
##ck
gps
##も
##ly
web885
106
2020
91
##ge
4000
1500
xd
boss
isbn
1994
org
##ry
me
love
##11
0fork
73
##12
3g
##ter
##ar
71
82
##la
hotel
130
1970
pk
83
87
140
ie
##os
##30
##el
74
##50
seo
cpu
##ml
p2p
84
may
##る
sun
tue
internet
cc
posted
youtube
##at
##ン
##man
ii
##ル
##15
abs
nt
pdf
yahoo
ago
1980
##it
news
mac
104
##てす
##me
##り
java
1992
spa
##de
##nt
hk
all
plus
la
1993
##mb
##16
##ve
west
##da
160
air
##い
##ps
から
##to
1989
logo
htc
php
https
fi
momo
##son
sat
##ke
##80
ebd
suv
wi
day
apk
##88
##um
mv
galaxy
wiki
or
brake
##ス
1200
する
this
1991
mon
##こ
❤2017
po
##ない
javascript
life
home
june
##ss
system
900
##ー
##０
pp
1988
world
fb
4k
br
##as
ic
ai
leonardo
safari
##60
live
free
xx
wed
win7
kiehl
##co
lg
o2o
##go
us
235
1949
mm
しい
vfm
kanye
##90
##2015
##id
jr
##ey
123
rss
##sa
##ro
##am
##no
thu
fri
350
##sh
##ki
103
comments
name
##のて
##pe
##ine
max
1987
8000
uber
##mi
##ton
wordpress
office
1986
1985
##ment
107
bd
win10
##ld
##li
gmail
bb
dior
##rs
##ri
##rd
##ます
up
cad
##®
dr
して
read
##21
をお
##io
##99
url
1984
pvc
paypal
show
policy
##40
##ty
##18
with
##★
##01
txt
102
##ba
dna
from
post
mini
ar
taiwan
john
##ga
privacy
agoda
##13
##ny
word
##24
##22
##by
##ur
##hz
1982
##ang
265
cookie
netscape
108
##ka
##～
##ad
house
share
note
ibm
code
hello
nike
sim
survey
##016
1979
1950
wikia
##32
##017
5g
cbc
##tor
##kg
1983
##rt
##14
campaign
store
2500
os
##ct
##ts
##°
170
api
##ns
365
excel
##な
##ao
##ら
##し
～～
##nd
university
163
には
518
##70
##ya
##il
##25
pierre
ipo
0020
897
##23
hotels
##ian
のお
125
years
6606
##ers
##26
high
##day
time
##ay
bug
##line
##く
##す
##be
xp
talk2yam
yamservice
10000
coco
##dy
sony
##ies
1978
microsoft
david
people
##ha
1960
instagram
intel
その
##ot
iso
1981
##va
115
##mo
##land
xxx
man
co
ltxsw
##ation
baby
220
##pa
##ol
1945
7000
tag
450
##ue
msn
##31
oppo
##ト
##ca
control
##om
st
chrome
##ure
##ん
be
##き
lol
##19
した
##bo
240
lady
##100
##way
##から
4600
##ko
##do
##un
4s
corporation
168
##ni
herme
##28
ｃｐ
978
##up
##06
ui
##ds
ppt
admin
three
します
bbc
re
128
##48
ca
##015
##35
hp
##ee
tpp
##た
##ive
××
root
##cc
##ました
##ble
##ity
adobe
park
114
et
oled
city
##ex
##ler
##ap
china
##book
20000
view
##ice
global
##km
your
hong
##mg
out
##ms
ng
ebay
##29
menu
ubuntu
##cy
rom
##view
open
ktv
do
server
##lo
if
english
##ね
##５
##oo
1600
##02
step1
kong
club
135
july
inc
1976
mr
hi
##net
touch
##ls
##ii
michael
lcd
##05
##33
phone
james
step2
1300
ios9
##box
dc
##２
##ley
samsung
111
280
pokemon
css
##ent
##les
いいえ
##１
s8
atom
play
bmw
##said
sa
etf
ctrl
♥yoyo♥
##55
2025
##2014
##66
adidas
amazon
1958
##ber
##ner
visa
##77
##der
1800
connectivity
##hi
firefox
109
118
hr
so
style
mark
pop
ol
skip
1975
as
##27
##ir
##61
190
mba
##う
##ai
le
##ver
1900
cafe2017
lte
super
113
129
##ron
amd
like
##☆
are
##ster
we
##sk
paul
data
international
##ft
longchamp
ssd
good
##ート
##ti
reply
##my
↓↓↓
apr
star
##ker
source
136
js
112
get
force
photo
##one
126
##2013
##ow
link
bbs
1972
goods
##lin
python
119
##ip
game
##ics
##ません
blue
##●
520
##45
page
itunes
##03
1955
260
1968
gt
gif
618
##ff
##47
group
くたさい
about
bar
ganji
##nce
music
lee
not
1977
1971
1973
##per
an
faq
comment
##って
days
##ock
116
##bs
1974
1969
v1
player
1956
xbox
sql
fm
f1
139
##ah
210
##lv
##mp
##000
melody
1957
##３
550
17life
199
1966
xml
market
##au
##71
999
##04
what
gl
##95
##age
tips
##68
book
##ting
mysql
can
1959
230
##ung
wonderland
watch
10℃
##ction
9000
mar
mobile
1946
1962
article
##db
part
▲top
party
って
1967
1964
1948
##07
##ore
##op
この
dj
##78
##38
010
main
225
1965
##ong
art
320
ad
134
020
##73
117
pm2
japan
228
##08
ts
1963
##ica
der
sm
##36
2019
##wa
ct
##７
##や
##64
1937
homemesh
search
##85
##れは
##tv
##di
macbook
##９
##くたさい
service
##♥
type
った
750
##ier
##si
##75
##います
##ok
best
##ット
goris
lock
##った
cf
3m
big
##ut
ftp
carol
##vi
１０
1961
happy
sd
##ac
122
anti
pe
cnn
iii
1920
138
##ラ
1940
esp
jan
tags
##98
##51
august
vol
##86
154
##™
##fs
##れ
##sion
design
ac
##ム
press
jordan
ppp
that
key
check
##６
##tt
##㎡
1080p
##lt
power
##42
1952
##bc
vivi
##ック
he
133
121
jpg
##rry
201
175
3500
1947
nb
##ted
##rn
しています
1954
usd
##t00
master
##ンク
001
model
##58
al
##09
1953
##34
ram
goo
ても
##ui
127
1930
red
##ary
rpg
item
##pm
##41
270
##za
project
##2012
hot
td
blogabstract
##ger
##62
650
##44
gr2
##します
##ｍ
black
electronic
nfc
year
asus
また
html5
cindy
##hd
m3
132
esc
##od
booking
##53
fed
tvb
##81
##ina
mit
165
##いる
chan
192
distribution
next
になる
peter
bios
steam
cm
1941
にも
pk10
##ix
##65
##91
dec
nasa
##ana
icecat
00z
b1
will
##46
li
se
##ji
##み
##ard
oct
##ain
jp
##ze
##bi
cio
##56
smart
h5
##39
##port
curve
vpn
##nm
##dia
utc
##あり
12345678910
##52
rmvb
chanel
a4
miss
##and
##im
media
who
##63
she
girl
5s
124
vera
##して
class
vivo
king
##フ
##ei
national
ab
1951
5cm
888
145
ipod
ap
1100
5mm
211
ms
2756
##69
mp4
msci
##po
##89
131
mg
index
380
##bit
##out
##zz
##97
##67
158
apec
##８
photoshop
opec
￥799
ては
##96
##tes
##ast
2g
○○
##ール
￥2899
##ling
##よ
##ory
1938
##ical
kitty
content
##43
step3
##cn
win8
155
vc
1400
iphone7
robert
##した
tcl
137
beauty
##87
en
dollars
##ys
##oc
step
pay
yy
a1
##2011
##lly
##ks
##♪
1939
188
download
1944
sep
exe
ph
います
school
gb
center
pr
street
##board
uv
##37
##lan
winrar
##que
##ua
##com
1942
1936
480
gpu
##４
ettoday
fu
tom
##54
##ren
##via
149
##72
b2b
144
##79
##tch
rose
arm
mb
##49
##ial
##nn
nvidia
step4
mvp
00㎡
york
156
##イ
how
cpi
591
2765
gov
kg
joe
##xx
mandy
pa
##ser
copyright
fashion
1935
don
##け
ecu
##ist
##art
erp
wap
have
##lm
talk
##ek
##ning
##if
ch
##ite
video
1943
cs
san
iot
look
##84
##2010
##ku
october
##ux
trump
##hs
##ide
box
141
first
##ins
april
##ight
##83
185
angel
protected
aa
151
162
x1
m2
##fe
##×
##ho
size
143
min
ofo
fun
gomaji
ex
hdmi
food
dns
march
chris
kevin
##のか
##lla
##pp
##ec
ag
ems
6s
720p
##rm
##ham
off
##92
asp
team
fandom
ed
299
▌♥
##ell
info
されています
##82
sina
4066
161
##able
##ctor
330
399
315
dll
rights
ltd
idc
jul
3kg
1927
142
ma
surface
##76
##ク
～～～
304
mall
eps
146
green
##59
map
space
donald
v2
sodu
##light
1931
148
1700
まて
310
reserved
htm
##han
##57
2d
178
mod
##ise
##tions
152
ti
##shi
doc
1933
icp
055
wang
##ram
shopping
aug
##pi
##well
now
wam
b2
からお
##hu
236
1928
##gb
266
f2
##93
153
mix
##ef
##uan
bwl
##plus
##res
core
##ess
tea
5℃
hktvmall
nhk
##ate
list
##ese
301
feb
4m
inn
ての
nov
159
12345
daniel
##ci
pass
##bet
##nk
coffee
202
ssl
airbnb
##ute
fbi
woshipm
skype
ea
cg
sp
##fc
##www
yes
edge
alt
007
##94
fpga
##ght
##gs
iso9001
さい
##ile
##wood
##uo
image
lin
icon
american
##em
1932
set
says
##king
##tive
blogger
##74
なと
256
147
##ox
##zy
##red
##ium
##lf
nokia
claire
##リ
##ding
november
lohas
##500
##tic
##マ
##cs
##ある
##che
##ire
##gy
##ult
db
january
win
##カ
166
road
ptt
##ま
##つ
198
##fa
##mer
anna
pchome
はい
udn
ef
420
##time
##tte
2030
##ア
g20
white
かかります
1929
308
garden
eleven
di
##おります
chen
309b
777
172
young
cosplay
ちてない
4500
bat
##123
##tra
##ては
kindle
npc
steve
etc
##ern
##｜
call
xperia
ces
travel
sk
s7
##ous
1934
##int
みいたたけます
183
edu
file
cho
qr
##car
##our
186
##ant
##ｄ
eric
1914
rends
##jo
##する
mastercard
##2000
kb
##min
290
##ino
vista
##ris
##ud
jack
2400
##set
169
pos
1912
##her
##ou
taipei
しく
205
beta
##ませんか
232
##fi
express
255
body
##ill
aphojoy
user
december
meiki
##ick
tweet
richard
##av
##ᆫ
iphone6
##dd
ちてすか
views
##mark
321
pd
##００
times
##▲
level
##ash
10g
point
5l
##ome
208
koreanmall
##ak
george
q2
206
wma
tcp
##200
スタッフ
full
mlb
##lle
##watch
tm
run
179
911
smith
business
##und
1919
color
##tal
222
171
##less
moon
4399
##rl
update
pcb
shop
499
157
little
なし
end
##mhz
van
dsp
easy
660
##house
##key
history
##ｏ
oh
##001
##hy
##web
oem
let
was
##2009
##gg
review
##wan
182
##°c
203
uc
title
##val
united
233
2021
##ons
doi
trivago
overdope
sbs
##ance
##ち
grand
special
573032185
imf
216
wx17house
##so
##ーム
audi
##he
london
william
##rp
##ake
science
beach
cfa
amp
ps4
880
##800
##link
##hp
crm
ferragamo
bell
make
##eng
195
under
zh
photos
2300
##style
##ント
via
176
da
##gi
company
i7
##ray
thomas
370
ufo
i5
##max
plc
ben
back
research
8g
173
mike
##pc
##ッフ
september
189
##ace
vps
february
167
pantos
wp
lisa
1921
★★
jquery
night
long
offer
##berg
##news
1911
##いて
ray
fks
wto
せます
over
164
340
##all
##rus
1924
##888
##works
blogtitle
loftpermalink
##→
187
martin
test
ling
km
##め
15000
fda
v3
##ja
##ロ
ｗedding
かある
outlet
family
##ea
をこ
##top
story
##ness
salvatore
##lu
204
swift
215
room
している
oracle
##ul
1925
sam
b2c
week
pi
rock
##のは
##ａ
##けと
##ean
##300
##gle
cctv
after
chinese
##back
powered
x2
##tan
1918
##nes
##イン
canon
only
181
##zi
##las
say
##oe
184
##sd
221
##bot
##world
##zo
sky
made
top100
just
1926
pmi
802
234
gap
##vr
177
les
174
▲topoct
ball
vogue
vi
ing
ofweek
cos
##list
##ort
▲topmay
##なら
##lon
として
last
##tc
##of
##bus
##gen
real
eva
##コ
a3
nas
##lie
##ria
##coin
##bt
▲topapr
his
212
cat
nata
vive
health
⋯⋯
drive
sir
▲topmar
du
cup
##カー
##ook
##よう
##sy
alex
msg
tour
しました
3ce
##word
193
ebooks
r8
block
318
##より
2200
nice
pvp
207
months
1905
rewards
##ther
1917
0800
##xi
##チ
##sc
micro
850
gg
blogfp
op
1922
daily
m1
264
true
##bb
ml
##tar
##のお
##ky
anthony
196
253
##yo
state
218
##ara
##aa
##rc
##tz
##ston
より
gear
##eo
##ade
ge
see
1923
##win
##ura
ss
heart
##den
##ita
down
##sm
el
png
2100
610
rakuten
whatsapp
bay
dream
add
##use
680
311
pad
gucci
mpv
##ode
##fo
island
▲topjun
##▼
223
jason
214
chicago
##❤
しの
##hone
io
##れる
##ことか
sogo
be2
##ology
990
cloud
vcd
##con
2～3
##ford
##joy
##kb
##こさいます
##rade
but
##ach
docker
##ful
rfid
ul
##ase
hit
ford
##star
580
##○
１１
a2
sdk
reading
edited
##are
cmos
##mc
238
siri
light
##ella
##ため
bloomberg
##read
pizza
##ison
jimmy
##vm
college
node
journal
ba
18k
##play
245
##cer
２０
magic
##yu
191
jump
288
tt
##ings
asr
##lia
3200
step5
network
##cd
mc
いします
1234
pixstyleme
273
##600
2800
money
★★★★★
1280
１２
430
bl
みの
act
##tus
tokyo
##rial
##life
emba
##ae
saas
tcs
##rk
##wang
summer
##sp
ko
##ving
390
premium
##その
netflix
##ヒ
uk
mt
##lton
right
frank
two
209
える
##ple
##cal
021
##んな
##sen
##ville
hold
nexus
dd
##ius
てお
##mah
##なく
tila
zero
820
ce
##tin
resort
##ws
charles
old
p10
5d
report
##360
##ru
##には
bus
vans
lt
##est
pv
##レ
links
rebecca
##ツ
##dm
azure
##365
きな
limited
bit
4gb
##mon
1910
moto
##eam
213
1913
var
eos
なとの
226
blogspot
された
699
e3
dos
dm
fc
##ments
##ik
##kw
boy
##bin
##ata
960
er
##せ
219
##vin
##tu
##ula
194
##∥
station
##ろ
##ature
835
files
zara
hdr
top10
nature
950
magazine
s6
marriott
##シ
avira
case
##っと
tab
##ran
tony
##home
oculus
im
##ral
jean
saint
cry
307
rosie
##force
##ini
ice
##bert
のある
##nder
##mber
pet
2600
##◆
plurk
▲topdec
##sis
00kg
▲topnov
720
##ence
tim
##ω
##nc
##ても
##name
log
ips
great
ikea
malaysia
unix
##イト
3600
##ncy
##nie
12000
akb48
##ye
##oid
404
##chi
##いた
oa
xuehai
##1000
##orm
##rf
275
さん
##ware
##リー
980
ho
##pro
text
##era
560
bob
227
##ub
##2008
8891
scp
avi
##zen
2022
mi
wu
museum
qvod
apache
lake
jcb
▲topaug
★★★
ni
##hr
hill
302
ne
weibo
490
ruby
##ーシ
##ヶ
##row
4d
▲topjul
iv
##ish
github
306
mate
312
##スト
##lot
##ane
andrew
のハイト
##tina
t1
rf
ed2k
##vel
##900
way
final
りの
ns
5a
705
197
##メ
sweet
bytes
##ene
▲topjan
231
##cker
##2007
##px
100g
topapp
229
helpapp
rs
low
14k
g4g
care
630
ldquo
あり
##fork
leave
rm
edition
##gan
##zon
##qq
▲topsep
##google
##ism
gold
224
explorer
##zer
toyota
category
select
visual
##labels
restaurant
##md
posts
s1
##ico
もっと
angelababy
123456
217
sports
s3
mbc
1915
してくたさい
shell
x86
candy
##new
kbs
face
xl
470
##here
4a
swissinfo
v8
▲topfeb
dram
##ual
##vice
3a
##wer
sport
q1
ios10
public
int
card
##ｃ
ep
au
rt
##れた
1080
bill
##mll
kim
３０
460
wan
##uk
##ミ
x3
298
0t
scott
##ming
239
e5
##3d
h7n9
worldcat
brown
##あります
##vo
##led
##580
##ax
249
410
##ert
paris
##～6
polo
925
##lr
599
##ナ
capital
##hing
bank
cv
1g
##chat
##ｓ
##たい
adc
##ule
2m
##ｅ
digital
hotmail
268
##pad
870
bbq
quot
##ring
before
wali
##まて
mcu
2k
2b
という
costco
316
north
333
switch
##city
##ｐ
philips
##mann
management
panasonic
##cl
##vd
##ping
##rge
alice
##lk
##ましょう
css3
##ney
vision
alpha
##ular
##400
##tter
lz
にお
##ありません
mode
gre
1916
pci
##tm
237
1～2
##yan
##そ
について
##let
##キ
work
war
coach
ah
mary
##ᅵ
huang
##pt
a8
pt
follow
##berry
1895
##ew
a5
ghost
##ション
##wn
##og
south
##code
girls
##rid
action
villa
git
r11
table
games
##cket
error
##anonymoussaid
##ag
here
##ame
##gc
qa
##■
##lis
gmp
##gin
vmalife
##cher
yu
wedding
##tis
demo
dragon
530
soho
social
bye
##rant
river
orz
acer
325
##↑
##ース
##ats
261
del
##ven
440
ups
##ように
##ター
305
value
macd
yougou
##dn
661
##ano
ll
##urt
##rent
continue
script
##wen
##ect
paper
263
319
shift
##chel
##フト
##cat
258
x5
fox
243
##さん
car
aaa
##blog
loading
##yn
##tp
kuso
799
si
sns
イカせるテンマ
ヒンクテンマ3
rmb
vdc
forest
central
prime
help
ultra
##rmb
##ような
241
square
688
##しい
のないフロクに
##field
##reen
##ors
##ju
c1
start
510
##air
##map
cdn
##wo
cba
stephen
m8
100km
##get
opera
##base
##ood
vsa
com™
##aw
##ail
251
なのて
count
t2
##ᅡ
##een
2700
hop
##gp
vsc
tree
##eg
##ose
816
285
##ories
##shop
alphago
v4
1909
simon
##ᆼ
fluke62max
zip
スホンサー
##sta
louis
cr
bas
##～10
bc
##yer
hadoop
##ube
##wi
1906
0755
hola
##low
place
centre
5v
d3
##fer
252
##750
##media
281
540
0l
exchange
262
series
##ハー
##san
eb
##bank
##ｋ
q3
##nge
##mail
take
##lp
259
1888
client
east
cache
event
vincent
##ールを
きを
##nse
sui
855
adchoice
##и
##stry
##なたの
246
##zone
ga
apps
sea
##ab
248
cisco
##タ
##rner
kymco
##care
dha
##pu
##yi
minkoff
royal
p1
への
annie
269
collection
kpi
playstation
257
になります
866
bh
##bar
queen
505
radio
1904
andy
armani
##xy
manager
iherb
##ery
##share
spring
raid
johnson
1908
##ob
volvo
hall
##ball
v6
our
taylor
##hk
bi
242
##cp
kate
bo
water
technology
##rie
サイトは
277
##ona
##sl
hpv
303
gtx
hip
rdquo
jayz
stone
##lex
##rum
namespace
##やり
620
##ale
##atic
des
##erson
##ql
##ves
##type
enter
##この
##てきます
d2
##168
##mix
##bian
との
a9
jj
ky
##lc
access
movie
##hc
リストに
tower
##ration
##mit
ます
##nch
ua
tel
prefix
##o2
1907
##point
1901
ott
～10
##http
##ury
baidu
##ink
member
##logy
bigbang
nownews
##js
##shot
##tb
##こと
247
eba
##tics
##lus
ける
v5
spark
##ama
there
##ions
god
##lls
##down
hiv
##ress
burberry
day2
##kv
◆◆
jeff
related
film
edit
joseph
283
##ark
cx
32gb
order
g9
30000
##ans
##tty
s5
##bee
かあります
thread
xr
buy
sh
005
land
spotify
mx
##ari
276
##verse
×email
sf
why
##ことて
244
7headlines
nego
sunny
dom
exo
401
666
positioning
fit
rgb
##tton
278
kiss
alexa
adam
lp
みリストを
##ｇ
mp
##ties
##llow
amy
##du
np
002
institute
271
##rth
##lar
2345
590
##des
sidebar
１５
imax
site
##cky
##kit
##ime
##009
season
323
##fun
##ンター
##ひ
gogoro
a7
pu
lily
fire
twd600
##ッセーシを
いて
##vis
30ml
##cture
##をお
information
##オ
close
friday
##くれる
yi
nick
てすか
##tta
##tel
6500
##lock
cbd
economy
254
かお
267
tinker
double
375
8gb
voice
##app
oops
channel
today
985
##right
raw
xyz
##＋
jim
edm
##cent
7500
supreme
814
ds
##its
##asia
dropbox
##てすか
##tti
books
272
100ml
##tle
##ller
##ken
##more
##boy
sex
309
##dom
t3
##ider
##なります
##unch
1903
810
feel
5500
##かった
##put
により
s2
mo
##gh
men
ka
amoled
div
##tr
##n1
port
howard
##tags
ken
dnf
##nus
adsense
##а
ide
##へ
buff
thunder
##town
##ique
has
##body
auto
pin
##erry
tee
てした
295
number
##the
##013
object
psp
cool
udnbkk
16gb
##mic
miui
##tro
most
r2
##alk
##nity
1880
±0
##いました
428
s4
law
version
##oa
n1
sgs
docomo
##tf
##ack
henry
fc2
##ded
##sco
##014
##rite
286
0mm
linkedin
##ada
##now
wii
##ndy
ucbug
##◎
sputniknews
legalminer
##ika
##xp
2gb
##bu
q10
oo
b6
come
##rman
cheese
ming
maker
##gm
nikon
##fig
ppi
kelly
##ります
jchere
てきます
ted
md
003
fgo
tech
##tto
dan
soc
##gl
##len
hair
earth
640
521
img
##pper
##a1
##てきる
##ロク
acca
##ition
##ference
suite
##ig
outlook
##mond
##cation
398
##pr
279
101vip
358
##999
282
64gb
3800
345
airport
##over
284
##おり
jones
##ith
lab
##su
##いるのて
co2
town
piece
##llo
no1
vmware
24h
##qi
focus
reader
##admin
##ora
tb
false
##log
1898
know
lan
838
##ces
f4
##ume
motel
stop
##oper
na
flickr
netcomponents
##af
##─
pose
williams
local
##ound
##cg
##site
##iko
いお
274
5m
gsm
con
##ath
1902
friends
##hip
cell
317
##rey
780
cream
##cks
012
##dp
facebooktwitterpinterestgoogle
sso
324
shtml
song
swiss
##mw
##キンク
lumia
xdd
string
tiffany
522
marc
られた
insee
russell
sc
dell
##ations
ｏｋ
camera
289
##vs
##flow
##late
classic
287
##nter
stay
g1
mtv
512
##ever
##lab
##nger
qe
sata
ryan
d1
50ml
cms
##cing
su
292
3300
editor
296
##nap
security
sunday
association
##ens
##700
##bra
acg
##かり
sofascore
とは
mkv
##ign
jonathan
gary
build
labels
##oto
tesla
moba
qi
gohappy
general
ajax
1024
##かる
サイト
society
##test
##urs
wps
fedora
##ich
mozilla
328
##480
##dr
usa
urn
##lina
##ｒ
grace
##die
##try
##ader
1250
##なり
elle
570
##chen
##ᆯ
price
##ten
uhz
##ough
eq
##hen
states
push
session
balance
wow
506
##cus
##py
when
##ward
##ep
34e
wong
library
prada
##サイト
##cle
running
##ree
313
ck
date
q4
##ctive
##ool
##＞
mk
##ira
##163
388
die
secret
rq
dota
buffet
は１ヶ
e6
##ez
pan
368
ha
##card
##cha
2a
##さ
alan
day3
eye
f3
##end
france
keep
adi
rna
tvbs
##ala
solo
nova
##え
##tail
##ょう
support
##ries
##なる
##ved
base
copy
iis
fps
##ways
hero
hgih
profile
fish
mu
ssh
entertainment
chang
##wd
click
cake
##ond
pre
##tom
kic
pixel
##ov
##fl
product
6a
##pd
dear
##gate
es
yumi
audio
##²
##sky
echo
bin
where
##ture
329
##ape
find
sap
isis
##なと
nand
##101
##load
##ream
band
a6
525
never
##post
festival
50cm
##we
555
guide
314
zenfone
##ike
335
gd
forum
jessica
strong
alexander
##ould
software
allen
##ious
program
360°
else
lohasthree
##gar
することかてきます
please
##れます
rc
##ggle
##ric
bim
50000
##own
eclipse
355
brian
3ds
##side
061
361
##other
##ける
##tech
##ator
485
engine
##ged
##ｔ
plaza
##fit
cia
ngo
westbrook
shi
tbs
50mm
##みませんか
sci
291
reuters
##ily
contextlink
##hn
af
##cil
bridge
very
##cel
1890
cambridge
##ize
15g
##aid
##data
790
frm
##head
award
butler
##sun
meta
##mar
america
ps3
puma
pmid
##すか
lc
670
kitchen
##lic
オーフン5
きなしソフトサーヒス
そして
day1
future
★★★★
##text
##page
##rris
pm1
##ket
fans
##っています
1001
christian
bot
kids
trackback
##hai
c3
display
##hl
n2
1896
idea
さんも
##sent
airmail
##ug
##men
pwm
けます
028
##lution
369
852
awards
schemas
354
asics
wikipedia
font
##tional
##vy
c2
293
##れている
##dget
##ein
っている
contact
pepper
スキル
339
##～5
294
##uel
##ument
730
##hang
みてす
q5
##sue
rain
##ndi
wei
swatch
##cept
わせ
331
popular
##ste
##tag
p2
501
trc
1899
##west
##live
justin
honda
ping
messenger
##rap
v9
543
##とは
unity
appqq
はすへて
025
leo
##tone
##テ
##ass
uniqlo
##010
502
her
jane
memory
moneydj
##tical
human
12306
していると
##m2
coc
miacare
##mn
tmt
##core
vim
kk
##may
fan
target
use
too
338
435
2050
867
737
fast
##2c
services
##ope
omega
energy
##わ
pinkoi
1a
##なから
##rain
jackson
##ement
##シャンルの
374
366
そんな
p9
rd
##ᆨ
1111
##tier
##vic
zone
##│
385
690
dl
isofix
cpa
m4
322
kimi
めて
davis
##lay
lulu
##uck
050
weeks
qs
##hop
920
##ｎ
ae
##ear
～5
eia
405
##fly
korea
jpeg
boost
##ship
small
##リア
1860
eur
297
425
valley
##iel
simple
##ude
rn
k2
##ena
されます
non
patrick
しているから
##ナー
feed
5757
30g
process
well
qqmei
##thing
they
aws
lu
pink
##ters
##kin
または
board
##vertisement
wine
##ien
unicode
##dge
r1
359
##tant
いを
##twitter
##3c
cool1
される
##れて
##ｌ
isp
##012
standard
45㎡2
402
##150
matt
##fu
326
##iner
googlemsn
pixnetfacebookyahoo
##ラン
x7
886
##uce
メーカー
sao
##ev
##きました
##file
9678
403
xddd
shirt
6l
##rio
##hat
3mm
givenchy
ya
bang
##lio
monday
crystal
ロクイン
##abc
336
head
890
ubuntuforumwikilinuxpastechat
##vc
##～20
##rity
cnc
7866
ipv6
null
1897
##ost
yang
imsean
tiger
##fet
##ンス
352
##＝
dji
327
ji
maria
##come
##んて
foundation
3100
##beth
##なった
1m
601
active
##aft
##don
3p
sr
349
emma
##khz
living
415
353
1889
341
709
457
sas
x6
##face
pptv
x4
##mate
han
sophie
##jing
337
fifa
##mand
other
sale
inwedding
##gn
てきちゃいます
##mmy
##pmlast
bad
nana
nbc
してみてくたさいね
なとはお
##wu
##かあります
##あ
note7
single
##340
せからこ
してくたさい♪この
しにはとんとんワークケートを
するとあなたにもっとマッチした
ならワークケートへ
もみつかっちゃうかも
ワークケートの
##bel
window
##dio
##ht
union
age
382
１４
##ivity
##ｙ
コメント
domain
neo
##isa
##lter
5k
f5
steven
##cts
powerpoint
tft
self
g2
ft
##テル
zol
##act
mwc
381
343
もう
nbapop
408
てある
eds
ace
##room
previous
author
tomtom
il
##ets
hu
financial
☆☆☆
っています
bp
5t
chi
1gb
##hg
fairmont
cross
008
gay
h2
function
##けて
356
also
1b
625
##ータ
##raph
1894
3～5
##ils
i3
334
avenue
##host
による
##bon
##tsu
message
navigation
50g
fintech
h6
##ことを
8cm
##ject
##vas
##firm
credit
##wf
xxxx
form
##nor
##space
huawei
plan
json
sbl
##dc
machine
921
392
wish
##120
##sol
windows7
edward
##ために
development
washington
##nsis
lo
818
##sio
##ym
##bor
planet
##～8
##wt
ieee
gpa
##めて
camp
ann
gm
##tw
##oka
connect
##rss
##work
##atus
wall
chicken
soul
2mm
##times
fa
##ather
##cord
009
##eep
hitachi
gui
harry
##pan
e1
disney
##press
##ーション
wind
386
frigidaire
##tl
liu
hsu
332
basic
von
ev
いた
てきる
スホンサーサイト
learning
##ull
expedia
archives
change
##wei
santa
cut
ins
6gb
turbo
brand
cf1
508
004
return
747
##rip
h1
##nis
##をこ
128gb
##にお
3t
application
しており
emc
rx
##oon
384
quick
412
15058
wilson
wing
chapter
##bug
beyond
##cms
##dar
##oh
zoom
e2
trip
sb
##nba
rcep
342
aspx
ci
080
gc
gnu
める
##count
advanced
dance
dv
##url
##ging
367
8591
am09
shadow
battle
346
##ｉ
##cia
##という
emily
##のてす
##tation
host
ff
techorz
sars
##mini
##mporary
##ering
nc
4200
798
##next
cma
##mbps
##gas
##ift
##dot
##ィ
455
##～17
amana
##りの
426
##ros
ir
00㎡1
##eet
##ible
##↓
710
ˋ▽ˊ
##aka
dcs
iq
##ｖ
l1
##lor
maggie
##011
##iu
588
##～1
830
##gt
1tb
articles
create
##burg
##iki
database
fantasy
##rex
##cam
dlc
dean
##you
hard
path
gaming
victoria
maps
cb
##lee
##itor
overchicstoretvhome
systems
##xt
416
p3
sarah
760
##nan
407
486
x9
install
second
626
##ann
##ph
##rcle
##nic
860
##nar
ec
##とう
768
metro
chocolate
##rian
～4
##table
##しています
skin
##sn
395
mountain
##0mm
inparadise
6m
7x24
ib
4800
##jia
eeworld
creative
g5
g3
357
parker
ecfa
village
からの
18000
sylvia
サーヒス
hbl
##ques
##onsored
##x2
##きます
##v4
##tein
ie6
383
##stack
389
ver
##ads
##baby
sound
bbe
##110
##lone
##uid
ads
022
gundam
351
thinkpad
006
scrum
match
##ave
mems
##470
##oy
##なりました
##talk
glass
lamigo
span
##eme
job
##a5
jay
wade
kde
498
##lace
ocean
tvg
##covery
##r3
##ners
##rea
junior
think
##aine
cover
##ision
##sia
↓↓
##bow
msi
413
458
406
##love
711
801
soft
z2
##pl
456
1840
mobil
mind
##uy
427
nginx
##oi
めた
##rr
6221
##mple
##sson
##ーシてす
371
##nts
91tv
comhd
crv3000
##uard
1868
397
deep
lost
field
gallery
##bia
rate
spf
redis
traction
930
icloud
011
なら
fe
jose
372
##tory
into
sohu
fx
899
379
kicstart2
##hia
すく
##～3
##sit
ra
２４
##walk
##xure
500g
##pact
pacific
xa
natural
carlo
##250
##walker
1850
##can
cto
gigi
516
##サー
pen
##hoo
ob
matlab
##ｂ
##yy
13913459
##iti
mango
##bbs
sense
c5
oxford
##ニア
walker
jennifer
##ola
course
##bre
701
##pus
##rder
lucky
075
##ぁ
ivy
なお
##nia
sotheby
side
##ugh
joy
##orage
##ush
##bat
##dt
364
r9
##2d
##gio
511
country
wear
##lax
##～7
##moon
393
seven
study
411
348
lonzo
8k
##ェ
evolution
##イフ
##kk
gs
kd
##レス
arduino
344
b12
##lux
arpg
##rdon
cook
##x5
dark
five
##als
##ida
とても
sign
362
##ちの
something
20mm
##nda
387
##posted
fresh
tf
1870
422
cam
##mine
##skip
##form
##ssion
education
394
##tee
dyson
stage
##jie
want
##night
epson
pack
あります
##ppy
テリヘル
##█
wd
##eh
##rence
left
##lvin
golden
mhz
discovery
##trix
##n2
loft
##uch
##dra
##sse
speed
～1
1mdb
sorry
welcome
##urn
wave
gaga
##lmer
teddy
##160
トラックハック
せよ
611
##f2016
378
rp
##sha
rar
##あなたに
##きた
840
holiday
##ュー
373
074
##vg
##nos
##rail
gartner
gi
6p
##dium
kit
488
b3
eco
##ろう
20g
sean
##stone
autocad
nu
##np
f16
write
029
m5
##ias
images
atp
##dk
fsm
504
1350
ve
52kb
##xxx
##のに
##cake
414
unit
lim
ru
1v
##ification
published
angela
16g
analytics
ak
##ｑ
##nel
gmt
##icon
again
##₂
##bby
ios11
445
かこさいます
waze
いてす
##ハ
9985
##ust
##ティー
framework
##007
iptv
delete
52sykb
cl
wwdc
027
30cm
##fw
##ての
1389
##xon
brandt
##ses
##dragon
tc
vetements
anne
monte
modern
official
##へて
##ere
##nne
##oud
もちろん
５０
etnews
##a2
##graphy
421
863
##ちゃん
444
##rtex
##てお
l2
##gma
mount
ccd
たと
archive
morning
tan
ddos
e7
##ホ
day4
##ウ
gis
453
its
495
factory
bruce
pg
##ito
ってくたさい
guest
cdma
##lling
536
n3
しかし
3～4
mega
eyes
ro
１３
women
dac
church
##jun
singapore
##facebook
6991
starbucks
##tos
##stin
##shine
zen
##mu
tina
20℃
1893
##たけて
503
465
request
##gence
qt
##っ
1886
347
363
q7
##zzi
diary
##tore
409
##ead
468
cst
##osa
canada
agent
va
##jiang
##ちは
##ーク
##lam
sg
##nix
##sday
##よって
g6
##master
bing
##zl
charlie
１６
8mm
nb40
##ーン
thai
##ルフ
ln284ct
##itz
##2f
bonnie
##food
##lent
originals
##stro
##lts
418
∟∣
##bscribe
children
ntd
yesstyle
##かも
hmv
##tment
d5
2cm
arts
sms
##pn
##я
##いい
topios9
539
lifestyle
virtual
##ague
xz
##deo
muji
024
unt
##nnis
##ᅩ
faq1
1884
396
##ette
fly
64㎡
はしめまして
441
curry
##pop
のこ
release
##←
##◆◆
##cast
073
ありな
500ml
##ews
5c
##stle
ios7
##ima
787
dog
lenovo
##r4
roger
013
cbs
vornado
100m
417
##desk
##クok
##ald
1867
9595
2900
##van
oil
##ｘ
some
break
common
##jy
##lines
g7
twice
419
ella
nano
belle
にこ
##mes
##self
##note
jb
##ことかてきます
benz
##との
##ova
451
save
##wing
##ますのて
kai
りは
##hua
##rect
rainer
##unge
448
##0m
adsl
##かな
guestname
##uma
##kins
##zu
tokichoi
##price
county
##med
##mus
rmk
391
address
vm
えて
openload
##group
##hin
##iginal
amg
urban
##oz
jobs
emi
##public
beautiful
##sch
album
##dden
##bell
jerry
works
hostel
miller
##drive
##rmin
##１０
376
boot
828
##370
##fx
##cm～
1885
##nome
##ctionary
##oman
##lish
##cr
##hm
433
##how
432
francis
xi
c919
b5
evernote
##uc
vga
##3000
coupe
##urg
##cca
##uality
019
6g
れる
multi
##また
##ett
em
hey
##ani
##tax
##rma
inside
than
740
leonnhurt
##jin
ict
れた
bird
notes
200mm
くの
##dical
##lli
result
442
iu
ee
438
smap
gopro
##last
yin
pure
998
32g
けた
5kg
##dan
##rame
mama
##oot
bean
marketing
##hur
2l
bella
sync
xuite
##ground
515
discuz
##getrelax
##ince
##bay
##5s
cj
##イス
gmat
apt
##pass
jing
##rix
c4
rich
##とても
niusnews
##ello
bag
770
##eting
##mobile
１８
culture
015
##のてすか
377
1020
area
##ience
616
details
gp
universal
silver
dit
はお
private
ddd
u11
kanshu
##ified
fung
##nny
dx
##520
tai
475
023
##fr
##lean
3s
##pin
429
##rin
25000
ly
rick
##bility
usb3
banner
##baru
##gion
metal
dt
vdf
1871
karl
qualcomm
bear
1010
oldid
ian
jo
##tors
population
##ernel
1882
mmorpg
##mv
##bike
603
##©
ww
friend
##ager
exhibition
##del
##pods
fpx
structure
##free
##tings
kl
##rley
##copyright
##mma
california
3400
orange
yoga
4l
canmake
honey
##anda
##コメント
595
nikkie
##ルハイト
dhl
publishing
##mall
##gnet
20cm
513
##クセス
##┅
e88
970
##dog
fishbase
##!
##"
###
##$
##%
##&
##'
##(
##)
##*
##+
##,
##-
##.
##/
##:
##;
##<
##=
##>
##?
##@
##[
##\
##]
##^
##_
##{
##|
##}
##~
##£
##¤
##¥
##§
##«
##±
##³
##µ
##·
##¹
##º
##»
##¼
##ß
##æ
##÷
##ø
##đ
##ŋ
##ɔ
##ə
##ɡ
##ʰ
##ˇ
##ˈ
##ˊ
##ˋ
##ˍ
##ː
##˙
##˚
##ˢ
##α
##β
##γ
##δ
##ε
##η
##θ
##ι
##κ
##λ
##μ
##ν
##ο
##π
##ρ
##ς
##σ
##τ
##υ
##φ
##χ
##ψ
##б
##в
##г
##д
##е
##ж
##з
##к
##л
##м
##н
##о
##п
##р
##с
##т
##у
##ф
##х
##ц
##ч
##ш
##ы
##ь
##і
##ا
##ب
##ة
##ت
##د
##ر
##س
##ع
##ل
##م
##ن
##ه
##و
##ي
##۩
##ก
##ง
##น
##ม
##ย
##ร
##อ
##า
##เ
##๑
##་
##ღ
##ᄀ
##ᄁ
##ᄂ
##ᄃ
##ᄅ
##ᄆ
##ᄇ
##ᄈ
##ᄉ
##ᄋ
##ᄌ
##ᄎ
##ᄏ
##ᄐ
##ᄑ
##ᄒ
##ᅢ
##ᅣ
##ᅥ
##ᅦ
##ᅧ
##ᅨ
##ᅪ
##ᅬ
##ᅭ
##ᅮ
##ᅯ
##ᅲ
##ᅳ
##ᅴ
##ᆷ
##ᆸ
##ᆺ
##ᆻ
##ᗜ
##ᵃ
##ᵉ
##ᵍ
##ᵏ
##ᵐ
##ᵒ
##ᵘ
##‖
##„
##†
##•
##‥
##‧
## 
##‰
##′
##″
##‹
##›
##※
##‿
##⁄
##ⁱ
##⁺
##ⁿ
##₁
##₃
##₄
##€
##№
##ⅰ
##ⅱ
##ⅲ
##ⅳ
##ⅴ
##↔
##↗
##↘
##⇒
##∀
##−
##∕
##∙
##√
##∞
##∟
##∠
##∣
##∩
##∮
##∶
##∼
##∽
##≈
##≒
##≡
##≤
##≥
##≦
##≧
##≪
##≫
##⊙
##⋅
##⋈
##⋯
##⌒
##①
##②
##③
##④
##⑤
##⑥
##⑦
##⑧
##⑨
##⑩
##⑴
##⑵
##⑶
##⑷
##⑸
##⒈
##⒉
##⒊
##⒋
##ⓒ
##ⓔ
##ⓘ
##━
##┃
##┆
##┊
##┌
##└
##├
##┣
##═
##║
##╚
##╞
##╠
##╭
##╮
##╯
##╰
##╱
##╳
##▂
##▃
##▅
##▇
##▉
##▋
##▌
##▍
##▎
##□
##▪
##▫
##▬
##△
##▶
##►
##▽
##◇
##◕
##◠
##◢
##◤
##☀
##☕
##☞
##☺
##☼
##♀
##♂
##♠
##♡
##♣
##♦
##♫
##♬
##✈
##✔
##✕
##✖
##✦
##✨
##✪
##✰
##✿
##❀
##➜
##➤
##⦿
##、
##。
##〃
##々
##〇
##〈
##〉
##《
##》
##「
##」
##『
##』
##【
##】
##〓
##〔
##〕
##〖
##〗
##〜
##〝
##〞
##ぃ
##ぇ
##ぬ
##ふ
##ほ
##む
##ゃ
##ゅ
##ゆ
##ょ
##゜
##ゝ
##ァ
##ゥ
##エ
##ォ
##ケ
##サ
##セ
##ソ
##ッ
##ニ
##ヌ
##ネ
##ノ
##ヘ
##モ
##ャ
##ヤ
##ュ
##ユ
##ョ
##ヨ
##ワ
##ヲ
##・
##ヽ
##ㄅ
##ㄆ
##ㄇ
##ㄉ
##ㄋ
##ㄌ
##ㄍ
##ㄎ
##ㄏ
##ㄒ
##ㄚ
##ㄛ
##ㄞ
##ㄟ
##ㄢ
##ㄤ
##ㄥ
##ㄧ
##ㄨ
##ㆍ
##㈦
##㊣
##㗎
##一
##丁
##七
##万
##丈
##三
##上
##下
##不
##与
##丐
##丑
##专
##且
##丕
##世
##丘
##丙
##业
##丛
##东
##丝
##丞
##丟
##両
##丢
##两
##严
##並
##丧
##丨
##个
##丫
##中
##丰
##串
##临
##丶
##丸
##丹
##为
##主
##丼
##丽
##举
##丿
##乂
##乃
##久
##么
##义
##之
##乌
##乍
##乎
##乏
##乐
##乒
##乓
##乔
##乖
##乗
##乘
##乙
##乜
##九
##乞
##也
##习
##乡
##书
##乩
##买
##乱
##乳
##乾
##亀
##亂
##了
##予
##争
##事
##二
##于
##亏
##云
##互
##五
##井
##亘
##亙
##亚
##些
##亜
##亞
##亟
##亡
##亢
##交
##亥
##亦
##产
##亨
##亩
##享
##京
##亭
##亮
##亲
##亳
##亵
##人
##亿
##什
##仁
##仃
##仄
##仅
##仆
##仇
##今
##介
##仍
##从
##仏
##仑
##仓
##仔
##仕
##他
##仗
##付
##仙
##仝
##仞
##仟
##代
##令
##以
##仨
##仪
##们
##仮
##仰
##仲
##件
##价
##任
##份
##仿
##企
##伉
##伊
##伍
##伎
##伏
##伐
##休
##伕
##众
##优
##伙
##会
##伝
##伞
##伟
##传
##伢
##伤
##伦
##伪
##伫
##伯
##估
##伴
##伶
##伸
##伺
##似
##伽
##佃
##但
##佇
##佈
##位
##低
##住
##佐
##佑
##体
##佔
##何
##佗
##佘
##余
##佚
##佛
##作
##佝
##佞
##佟
##你
##佢
##佣
##佤
##佥
##佩
##佬
##佯
##佰
##佳
##併
##佶
##佻
##佼
##使
##侃
##侄
##來
##侈
##例
##侍
##侏
##侑
##侖
##侗
##供
##依
##侠
##価
##侣
##侥
##侦
##侧
##侨
##侬
##侮
##侯
##侵
##侶
##侷
##便
##係
##促
##俄
##俊
##俎
##俏
##俐
##俑
##俗
##俘
##俚
##保
##俞
##俟
##俠
##信
##俨
##俩
##俪
##俬
##俭
##修
##俯
##俱
##俳
##俸
##俺
##俾
##倆
##倉
##個
##倌
##倍
##倏
##們
##倒
##倔
##倖
##倘
##候
##倚
##倜
##借
##倡
##値
##倦
##倩
##倪
##倫
##倬
##倭
##倶
##债
##值
##倾
##偃
##假
##偈
##偉
##偌
##偎
##偏
##偕
##做
##停
##健
##側
##偵
##偶
##偷
##偻
##偽
##偿
##傀
##傅
##傍
##傑
##傘
##備
##傚
##傢
##傣
##傥
##储
##傩
##催
##傭
##傲
##傳
##債
##傷
##傻
##傾
##僅
##働
##像
##僑
##僕
##僖
##僚
##僥
##僧
##僭
##僮
##僱
##僵
##價
##僻
##儀
##儂
##億
##儆
##儉
##儋
##儒
##儕
##儘
##償
##儡
##優
##儲
##儷
##儼
##儿
##兀
##允
##元
##兄
##充
##兆
##兇
##先
##光
##克
##兌
##免
##児
##兑
##兒
##兔
##兖
##党
##兜
##兢
##入
##內
##全
##兩
##八
##公
##六
##兮
##兰
##共
##兲
##关
##兴
##兵
##其
##具
##典
##兹
##养
##兼
##兽
##冀
##内
##円
##冇
##冈
##冉
##冊
##册
##再
##冏
##冒
##冕
##冗
##写
##军
##农
##冠
##冢
##冤
##冥
##冨
##冪
##冬
##冯
##冰
##冲
##决
##况
##冶
##冷
##冻
##冼
##冽
##冾
##净
##凄
##准
##凇
##凈
##凉
##凋
##凌
##凍
##减
##凑
##凛
##凜
##凝
##几
##凡
##凤
##処
##凪
##凭
##凯
##凰
##凱
##凳
##凶
##凸
##凹
##出
##击
##函
##凿
##刀
##刁
##刃
##分
##切
##刈
##刊
##刍
##刎
##刑
##划
##列
##刘
##则
##刚
##创
##初
##删
##判
##別
##刨
##利
##刪
##别
##刮
##到
##制
##刷
##券
##刹
##刺
##刻
##刽
##剁
##剂
##剃
##則
##剉
##削
##剋
##剌
##前
##剎
##剐
##剑
##剔
##剖
##剛
##剜
##剝
##剣
##剤
##剥
##剧
##剩
##剪
##副
##割
##創
##剷
##剽
##剿
##劃
##劇
##劈
##劉
##劊
##劍
##劏
##劑
##力
##劝
##办
##功
##加
##务
##劣
##动
##助
##努
##劫
##劭
##励
##劲
##劳
##労
##劵
##効
##劾
##势
##勁
##勃
##勇
##勉
##勋
##勐
##勒
##動
##勖
##勘
##務
##勛
##勝
##勞
##募
##勢
##勤
##勧
##勳
##勵
##勸
##勺
##勻
##勾
##勿
##匀
##包
##匆
##匈
##匍
##匐
##匕
##化
##北
##匙
##匝
##匠
##匡
##匣
##匪
##匮
##匯
##匱
##匹
##区
##医
##匾
##匿
##區
##十
##千
##卅
##升
##午
##卉
##半
##卍
##华
##协
##卑
##卒
##卓
##協
##单
##卖
##南
##単
##博
##卜
##卞
##卟
##占
##卡
##卢
##卤
##卦
##卧
##卫
##卮
##卯
##印
##危
##即
##却
##卵
##卷
##卸
##卻
##卿
##厂
##厄
##厅
##历
##厉
##压
##厌
##厕
##厘
##厚
##厝
##原
##厢
##厥
##厦
##厨
##厩
##厭
##厮
##厲
##厳
##去
##县
##叁
##参
##參
##又
##叉
##及
##友
##双
##反
##収
##发
##叔
##取
##受
##变
##叙
##叛
##叟
##叠
##叡
##叢
##口
##古
##句
##另
##叨
##叩
##只
##叫
##召
##叭
##叮
##可
##台
##叱
##史
##右
##叵
##叶
##号
##司
##叹
##叻
##叼
##叽
##吁
##吃
##各
##吆
##合
##吉
##吊
##吋
##同
##名
##后
##吏
##吐
##向
##吒
##吓
##吕
##吖
##吗
##君
##吝
##吞
##吟
##吠
##吡
##否
##吧
##吨
##吩
##含
##听
##吭
##吮
##启
##吱
##吳
##吴
##吵
##吶
##吸
##吹
##吻
##吼
##吽
##吾
##呀
##呂
##呃
##呆
##呈
##告
##呋
##呎
##呐
##呓
##呕
##呗
##员
##呛
##呜
##呢
##呤
##呦
##周
##呱
##呲
##味
##呵
##呷
##呸
##呻
##呼
##命
##咀
##咁
##咂
##咄
##咆
##咋
##和
##咎
##咏
##咐
##咒
##咔
##咕
##咖
##咗
##咘
##咙
##咚
##咛
##咣
##咤
##咦
##咧
##咨
##咩
##咪
##咫
##咬
##咭
##咯
##咱
##咲
##咳
##咸
##咻
##咽
##咿
##哀
##品
##哂
##哄
##哆
##哇
##哈
##哉
##哋
##哌
##响
##哎
##哏
##哐
##哑
##哒
##哔
##哗
##哟
##員
##哥
##哦
##哧
##哨
##哩
##哪
##哭
##哮
##哲
##哺
##哼
##哽
##唁
##唄
##唆
##唇
##唉
##唏
##唐
##唑
##唔
##唠
##唤
##唧
##唬
##售
##唯
##唰
##唱
##唳
##唷
##唸
##唾
##啃
##啄
##商
##啉
##啊
##問
##啓
##啕
##啖
##啜
##啞
##啟
##啡
##啤
##啥
##啦
##啧
##啪
##啫
##啬
##啮
##啰
##啱
##啲
##啵
##啶
##啷
##啸
##啻
##啼
##啾
##喀
##喂
##喃
##善
##喆
##喇
##喉
##喊
##喋
##喎
##喏
##喔
##喘
##喙
##喚
##喜
##喝
##喟
##喧
##喪
##喫
##喬
##單
##喰
##喱
##喲
##喳
##喵
##営
##喷
##喹
##喺
##喻
##喽
##嗅
##嗆
##嗇
##嗎
##嗑
##嗒
##嗓
##嗔
##嗖
##嗚
##嗜
##嗝
##嗟
##嗡
##嗣
##嗤
##嗦
##嗨
##嗪
##嗬
##嗯
##嗰
##嗲
##嗳
##嗶
##嗷
##嗽
##嘀
##嘅
##嘆
##嘈
##嘉
##嘌
##嘍
##嘎
##嘔
##嘖
##嘗
##嘘
##嘚
##嘛
##嘜
##嘞
##嘟
##嘢
##嘣
##嘤
##嘧
##嘩
##嘭
##嘮
##嘯
##嘰
##嘱
##嘲
##嘴
##嘶
##嘸
##嘹
##嘻
##嘿
##噁
##噌
##噎
##噓
##噔
##噗
##噙
##噜
##噠
##噢
##噤
##器
##噩
##噪
##噬
##噱
##噴
##噶
##噸
##噹
##噻
##噼
##嚀
##嚇
##嚎
##嚏
##嚐
##嚓
##嚕
##嚟
##嚣
##嚥
##嚨
##嚮
##嚴
##嚷
##嚼
##囂
##囉
##囊
##囍
##囑
##囔
##囗
##囚
##四
##囝
##回
##囟
##因
##囡
##团
##団
##囤
##囧
##囪
##囫
##园
##困
##囱
##囲
##図
##围
##囹
##固
##国
##图
##囿
##圃
##圄
##圆
##圈
##國
##圍
##圏
##園
##圓
##圖
##團
##圜
##土
##圣
##圧
##在
##圩
##圭
##地
##圳
##场
##圻
##圾
##址
##坂
##均
##坊
##坍
##坎
##坏
##坐
##坑
##块
##坚
##坛
##坝
##坞
##坟
##坠
##坡
##坤
##坦
##坨
##坪
##坯
##坳
##坵
##坷
##垂
##垃
##垄
##型
##垒
##垚
##垛
##垠
##垢
##垣
##垦
##垩
##垫
##垭
##垮
##垵
##埂
##埃
##埋
##城
##埔
##埕
##埗
##域
##埠
##埤
##埵
##執
##埸
##培
##基
##埼
##堀
##堂
##堃
##堅
##堆
##堇
##堑
##堕
##堙
##堡
##堤
##堪
##堯
##堰
##報
##場
##堵
##堺
##堿
##塊
##塌
##塑
##塔
##塗
##塘
##塚
##塞
##塢
##塩
##填
##塬
##塭
##塵
##塾
##墀
##境
##墅
##墉
##墊
##墒
##墓
##増
##墘
##墙
##墜
##增
##墟
##墨
##墩
##墮
##墳
##墻
##墾
##壁
##壅
##壆
##壇
##壊
##壑
##壓
##壕
##壘
##壞
##壟
##壢
##壤
##壩
##士
##壬
##壮
##壯
##声
##売
##壳
##壶
##壹
##壺
##壽
##处
##备
##変
##复
##夏
##夔
##夕
##外
##夙
##多
##夜
##够
##夠
##夢
##夥
##大
##天
##太
##夫
##夭
##央
##夯
##失
##头
##夷
##夸
##夹
##夺
##夾
##奂
##奄
##奇
##奈
##奉
##奋
##奎
##奏
##奐
##契
##奔
##奕
##奖
##套
##奘
##奚
##奠
##奢
##奥
##奧
##奪
##奬
##奮
##女
##奴
##奶
##奸
##她
##好
##如
##妃
##妄
##妆
##妇
##妈
##妊
##妍
##妒
##妓
##妖
##妘
##妙
##妝
##妞
##妣
##妤
##妥
##妨
##妩
##妪
##妮
##妲
##妳
##妹
##妻
##妾
##姆
##姉
##姊
##始
##姍
##姐
##姑
##姒
##姓
##委
##姗
##姚
##姜
##姝
##姣
##姥
##姦
##姨
##姪
##姫
##姬
##姹
##姻
##姿
##威
##娃
##娄
##娅
##娆
##娇
##娉
##娑
##娓
##娘
##娛
##娜
##娟
##娠
##娣
##娥
##娩
##娱
##娲
##娴
##娶
##娼
##婀
##婁
##婆
##婉
##婊
##婕
##婚
##婢
##婦
##婧
##婪
##婭
##婴
##婵
##婶
##婷
##婺
##婿
##媒
##媚
##媛
##媞
##媧
##媲
##媳
##媽
##媾
##嫁
##嫂
##嫉
##嫌
##嫑
##嫔
##嫖
##嫘
##嫚
##嫡
##嫣
##嫦
##嫩
##嫲
##嫵
##嫻
##嬅
##嬉
##嬌
##嬗
##嬛
##嬢
##嬤
##嬪
##嬰
##嬴
##嬷
##嬸
##嬿
##孀
##孃
##子
##孑
##孔
##孕
##孖
##字
##存
##孙
##孚
##孛
##孜
##孝
##孟
##孢
##季
##孤
##学
##孩
##孪
##孫
##孬
##孰
##孱
##孳
##孵
##學
##孺
##孽
##孿
##宁
##它
##宅
##宇
##守
##安
##宋
##完
##宏
##宓
##宕
##宗
##官
##宙
##定
##宛
##宜
##宝
##实
##実
##宠
##审
##客
##宣
##室
##宥
##宦
##宪
##宫
##宮
##宰
##害
##宴
##宵
##家
##宸
##容
##宽
##宾
##宿
##寂
##寄
##寅
##密
##寇
##富
##寐
##寒
##寓
##寛
##寝
##寞
##察
##寡
##寢
##寥
##實
##寧
##寨
##審
##寫
##寬
##寮
##寰
##寵
##寶
##寸
##对
##寺
##寻
##导
##対
##寿
##封
##専
##射
##将
##將
##專
##尉
##尊
##尋
##對
##導
##小
##少
##尔
##尕
##尖
##尘
##尚
##尝
##尤
##尧
##尬
##就
##尴
##尷
##尸
##尹
##尺
##尻
##尼
##尽
##尾
##尿
##局
##屁
##层
##屄
##居
##屆
##屈
##屉
##届
##屋
##屌
##屍
##屎
##屏
##屐
##屑
##展
##屜
##属
##屠
##屡
##屢
##層
##履
##屬
##屯
##山
##屹
##屿
##岀
##岁
##岂
##岌
##岐
##岑
##岔
##岖
##岗
##岘
##岙
##岚
##岛
##岡
##岩
##岫
##岬
##岭
##岱
##岳
##岷
##岸
##峇
##峋
##峒
##峙
##峡
##峤
##峥
##峦
##峨
##峪
##峭
##峯
##峰
##峴
##島
##峻
##峽
##崁
##崂
##崆
##崇
##崎
##崑
##崔
##崖
##崗
##崙
##崛
##崧
##崩
##崭
##崴
##崽
##嵇
##嵊
##嵋
##嵌
##嵐
##嵘
##嵩
##嵬
##嵯
##嶂
##嶄
##嶇
##嶋
##嶙
##嶺
##嶼
##嶽
##巅
##巍
##巒
##巔
##巖
##川
##州
##巡
##巢
##工
##左
##巧
##巨
##巩
##巫
##差
##己
##已
##巳
##巴
##巷
##巻
##巽
##巾
##巿
##币
##市
##布
##帅
##帆
##师
##希
##帐
##帑
##帕
##帖
##帘
##帚
##帛
##帜
##帝
##帥
##带
##帧
##師
##席
##帮
##帯
##帰
##帳
##帶
##帷
##常
##帼
##帽
##幀
##幂
##幄
##幅
##幌
##幔
##幕
##幟
##幡
##幢
##幣
##幫
##干
##平
##年
##并
##幸
##幹
##幺
##幻
##幼
##幽
##幾
##广
##庁
##広
##庄
##庆
##庇
##床
##序
##庐
##库
##应
##底
##庖
##店
##庙
##庚
##府
##庞
##废
##庠
##度
##座
##庫
##庭
##庵
##庶
##康
##庸
##庹
##庾
##廁
##廂
##廃
##廈
##廉
##廊
##廓
##廖
##廚
##廝
##廟
##廠
##廢
##廣
##廬
##廳
##延
##廷
##建
##廿
##开
##弁
##异
##弃
##弄
##弈
##弊
##弋
##式
##弑
##弒
##弓
##弔
##引
##弗
##弘
##弛
##弟
##张
##弥
##弦
##弧
##弩
##弭
##弯
##弱
##張
##強
##弹
##强
##弼
##弾
##彅
##彆
##彈
##彌
##彎
##归
##当
##录
##彗
##彙
##彝
##形
##彤
##彥
##彦
##彧
##彩
##彪
##彫
##彬
##彭
##彰
##影
##彷
##役
##彻
##彼
##彿
##往
##征
##径
##待
##徇
##很
##徉
##徊
##律
##後
##徐
##徑
##徒
##従
##徕
##得
##徘
##徙
##徜
##從
##徠
##御
##徨
##復
##循
##徬
##微
##徳
##徴
##徵
##德
##徹
##徼
##徽
##心
##必
##忆
##忌
##忍
##忏
##忐
##忑
##忒
##忖
##志
##忘
##忙
##応
##忠
##忡
##忤
##忧
##忪
##快
##忱
##念
##忻
##忽
##忿
##怀
##态
##怂
##怅
##怆
##怎
##怏
##怒
##怔
##怕
##怖
##怙
##怜
##思
##怠
##怡
##急
##怦
##性
##怨
##怪
##怯
##怵
##总
##怼
##恁
##恃
##恆
##恋
##恍
##恐
##恒
##恕
##恙
##恚
##恢
##恣
##恤
##恥
##恨
##恩
##恪
##恫
##恬
##恭
##息
##恰
##恳
##恵
##恶
##恸
##恺
##恻
##恼
##恿
##悄
##悅
##悉
##悌
##悍
##悔
##悖
##悚
##悟
##悠
##患
##悦
##您
##悩
##悪
##悬
##悯
##悱
##悲
##悴
##悵
##悶
##悸
##悻
##悼
##悽
##情
##惆
##惇
##惊
##惋
##惑
##惕
##惘
##惚
##惜
##惟
##惠
##惡
##惦
##惧
##惨
##惩
##惫
##惬
##惭
##惮
##惯
##惰
##惱
##想
##惴
##惶
##惹
##惺
##愁
##愆
##愈
##愉
##愍
##意
##愕
##愚
##愛
##愜
##感
##愣
##愤
##愧
##愫
##愷
##愿
##慄
##慈
##態
##慌
##慎
##慑
##慕
##慘
##慚
##慟
##慢
##慣
##慧
##慨
##慫
##慮
##慰
##慳
##慵
##慶
##慷
##慾
##憂
##憊
##憋
##憎
##憐
##憑
##憔
##憚
##憤
##憧
##憨
##憩
##憫
##憬
##憲
##憶
##憾
##懂
##懇
##懈
##應
##懊
##懋
##懑
##懒
##懦
##懲
##懵
##懶
##懷
##懸
##懺
##懼
##懾
##懿
##戀
##戈
##戊
##戌
##戍
##戎
##戏
##成
##我
##戒
##戕
##或
##战
##戚
##戛
##戟
##戡
##戦
##截
##戬
##戮
##戰
##戲
##戳
##戴
##戶
##户
##戸
##戻
##戾
##房
##所
##扁
##扇
##扈
##扉
##手
##才
##扎
##扑
##扒
##打
##扔
##払
##托
##扛
##扣
##扦
##执
##扩
##扪
##扫
##扬
##扭
##扮
##扯
##扰
##扱
##扳
##扶
##批
##扼
##找
##承
##技
##抄
##抉
##把
##抑
##抒
##抓
##投
##抖
##抗
##折
##抚
##抛
##抜
##択
##抟
##抠
##抡
##抢
##护
##报
##抨
##披
##抬
##抱
##抵
##抹
##押
##抽
##抿
##拂
##拄
##担
##拆
##拇
##拈
##拉
##拋
##拌
##拍
##拎
##拐
##拒
##拓
##拔
##拖
##拗
##拘
##拙
##拚
##招
##拜
##拟
##拡
##拢
##拣
##拥
##拦
##拧
##拨
##择
##括
##拭
##拮
##拯
##拱
##拳
##拴
##拷
##拼
##拽
##拾
##拿
##持
##挂
##指
##挈
##按
##挎
##挑
##挖
##挙
##挚
##挛
##挝
##挞
##挟
##挠
##挡
##挣
##挤
##挥
##挨
##挪
##挫
##振
##挲
##挹
##挺
##挽
##挾
##捂
##捅
##捆
##捉
##捋
##捌
##捍
##捎
##捏
##捐
##捕
##捞
##损
##捡
##换
##捣
##捧
##捨
##捩
##据
##捱
##捲
##捶
##捷
##捺
##捻
##掀
##掂
##掃
##掇
##授
##掉
##掌
##掏
##掐
##排
##掖
##掘
##掙
##掛
##掠
##採
##探
##掣
##接
##控
##推
##掩
##措
##掬
##掰
##掲
##掳
##掴
##掷
##掸
##掺
##揀
##揃
##揄
##揆
##揉
##揍
##描
##提
##插
##揖
##揚
##換
##握
##揣
##揩
##揪
##揭
##揮
##援
##揶
##揸
##揹
##揽
##搀
##搁
##搂
##搅
##損
##搏
##搐
##搓
##搔
##搖
##搗
##搜
##搞
##搡
##搪
##搬
##搭
##搵
##搶
##携
##搽
##摀
##摁
##摄
##摆
##摇
##摈
##摊
##摒
##摔
##摘
##摞
##摟
##摧
##摩
##摯
##摳
##摸
##摹
##摺
##摻
##撂
##撃
##撅
##撇
##撈
##撐
##撑
##撒
##撓
##撕
##撚
##撞
##撤
##撥
##撩
##撫
##撬
##播
##撮
##撰
##撲
##撵
##撷
##撸
##撻
##撼
##撿
##擀
##擁
##擂
##擄
##擅
##擇
##擊
##擋
##操
##擎
##擒
##擔
##擘
##據
##擞
##擠
##擡
##擢
##擦
##擬
##擰
##擱
##擲
##擴
##擷
##擺
##擼
##擾
##攀
##攏
##攒
##攔
##攘
##攙
##攜
##攝
##攞
##攢
##攣
##攤
##攥
##攪
##攫
##攬
##支
##收
##攸
##改
##攻
##放
##政
##故
##效
##敌
##敍
##敎
##敏
##救
##敕
##敖
##敗
##敘
##教
##敛
##敝
##敞
##敢
##散
##敦
##敬
##数
##敲
##整
##敵
##敷
##數
##斂
##斃
##文
##斋
##斌
##斎
##斐
##斑
##斓
##斗
##料
##斛
##斜
##斟
##斡
##斤
##斥
##斧
##斩
##斫
##斬
##断
##斯
##新
##斷
##方
##於
##施
##旁
##旃
##旅
##旋
##旌
##旎
##族
##旖
##旗
##无
##既
##日
##旦
##旧
##旨
##早
##旬
##旭
##旮
##旱
##时
##旷
##旺
##旻
##昀
##昂
##昆
##昇
##昉
##昊
##昌
##明
##昏
##易
##昔
##昕
##昙
##星
##映
##春
##昧
##昨
##昭
##是
##昱
##昴
##昵
##昶
##昼
##显
##晁
##時
##晃
##晉
##晋
##晌
##晏
##晒
##晓
##晔
##晕
##晖
##晗
##晚
##晝
##晞
##晟
##晤
##晦
##晨
##晩
##普
##景
##晰
##晴
##晶
##晷
##智
##晾
##暂
##暄
##暇
##暈
##暉
##暌
##暐
##暑
##暖
##暗
##暝
##暢
##暧
##暨
##暫
##暮
##暱
##暴
##暸
##暹
##曄
##曆
##曇
##曉
##曖
##曙
##曜
##曝
##曠
##曦
##曬
##曰
##曲
##曳
##更
##書
##曹
##曼
##曾
##替
##最
##會
##月
##有
##朋
##服
##朐
##朔
##朕
##朗
##望
##朝
##期
##朦
##朧
##木
##未
##末
##本
##札
##朮
##术
##朱
##朴
##朵
##机
##朽
##杀
##杂
##权
##杆
##杈
##杉
##李
##杏
##材
##村
##杓
##杖
##杜
##杞
##束
##杠
##条
##来
##杨
##杭
##杯
##杰
##東
##杳
##杵
##杷
##杼
##松
##板
##极
##构
##枇
##枉
##枋
##析
##枕
##林
##枚
##果
##枝
##枢
##枣
##枪
##枫
##枭
##枯
##枰
##枱
##枳
##架
##枷
##枸
##柄
##柏
##某
##柑
##柒
##染
##柔
##柘
##柚
##柜
##柞
##柠
##柢
##查
##柩
##柬
##柯
##柱
##柳
##柴
##柵
##査
##柿
##栀
##栃
##栄
##栅
##标
##栈
##栉
##栋
##栎
##栏
##树
##栓
##栖
##栗
##校
##栩
##株
##样
##核
##根
##格
##栽
##栾
##桀
##桁
##桂
##桃
##桅
##框
##案
##桉
##桌
##桎
##桐
##桑
##桓
##桔
##桜
##桠
##桡
##桢
##档
##桥
##桦
##桧
##桨
##桩
##桶
##桿
##梁
##梅
##梆
##梏
##梓
##梗
##條
##梟
##梢
##梦
##梧
##梨
##梭
##梯
##械
##梳
##梵
##梶
##检
##棂
##棄
##棉
##棋
##棍
##棒
##棕
##棗
##棘
##棚
##棟
##棠
##棣
##棧
##森
##棱
##棲
##棵
##棹
##棺
##椁
##椅
##椋
##植
##椎
##椒
##検
##椪
##椭
##椰
##椹
##椽
##椿
##楂
##楊
##楓
##楔
##楚
##楝
##楞
##楠
##楣
##楨
##楫
##業
##楮
##極
##楷
##楸
##楹
##楼
##楽
##概
##榄
##榆
##榈
##榉
##榔
##榕
##榖
##榛
##榜
##榨
##榫
##榭
##榮
##榱
##榴
##榷
##榻
##槁
##槃
##構
##槌
##槍
##槎
##槐
##槓
##様
##槛
##槟
##槤
##槭
##槲
##槳
##槻
##槽
##槿
##樁
##樂
##樊
##樑
##樓
##標
##樞
##樟
##模
##樣
##権
##横
##樫
##樯
##樱
##樵
##樸
##樹
##樺
##樽
##樾
##橄
##橇
##橋
##橐
##橘
##橙
##機
##橡
##橢
##橫
##橱
##橹
##橼
##檀
##檄
##檎
##檐
##檔
##檗
##檜
##檢
##檬
##檯
##檳
##檸
##檻
##櫃
##櫚
##櫛
##櫥
##櫸
##櫻
##欄
##權
##欒
##欖
##欠
##次
##欢
##欣
##欧
##欲
##欸
##欺
##欽
##款
##歆
##歇
##歉
##歌
##歎
##歐
##歓
##歙
##歛
##歡
##止
##正
##此
##步
##武
##歧
##歩
##歪
##歯
##歲
##歳
##歴
##歷
##歸
##歹
##死
##歼
##殁
##殃
##殆
##殇
##殉
##殊
##残
##殒
##殓
##殖
##殘
##殞
##殡
##殤
##殭
##殯
##殲
##殴
##段
##殷
##殺
##殼
##殿
##毀
##毁
##毂
##毅
##毆
##毋
##母
##毎
##每
##毒
##毓
##比
##毕
##毗
##毘
##毙
##毛
##毡
##毫
##毯
##毽
##氈
##氏
##氐
##民
##氓
##气
##氖
##気
##氙
##氛
##氟
##氡
##氢
##氣
##氤
##氦
##氧
##氨
##氪
##氫
##氮
##氯
##氰
##氲
##水
##氷
##永
##氹
##氾
##汀
##汁
##求
##汆
##汇
##汉
##汎
##汐
##汕
##汗
##汙
##汛
##汝
##汞
##江
##池
##污
##汤
##汨
##汩
##汪
##汰
##汲
##汴
##汶
##汹
##決
##汽
##汾
##沁
##沂
##沃
##沅
##沈
##沉
##沌
##沏
##沐
##沒
##沓
##沖
##沙
##沛
##沟
##没
##沢
##沣
##沥
##沦
##沧
##沪
##沫
##沭
##沮
##沱
##河
##沸
##油
##治
##沼
##沽
##沾
##沿
##況
##泄
##泉
##泊
##泌
##泓
##法
##泗
##泛
##泞
##泠
##泡
##波
##泣
##泥
##注
##泪
##泫
##泮
##泯
##泰
##泱
##泳
##泵
##泷
##泸
##泻
##泼
##泽
##泾
##洁
##洄
##洋
##洒
##洗
##洙
##洛
##洞
##津
##洩
##洪
##洮
##洱
##洲
##洵
##洶
##洸
##洹
##活
##洼
##洽
##派
##流
##浃
##浄
##浅
##浆
##浇
##浊
##测
##济
##浏
##浑
##浒
##浓
##浔
##浙
##浚
##浜
##浣
##浦
##浩
##浪
##浬
##浮
##浯
##浴
##海
##浸
##涂
##涅
##涇
##消
##涉
##涌
##涎
##涓
##涔
##涕
##涙
##涛
##涝
##涞
##涟
##涠
##涡
##涣
##涤
##润
##涧
##涨
##涩
##涪
##涮
##涯
##液
##涵
##涸
##涼
##涿
##淀
##淄
##淅
##淆
##淇
##淋
##淌
##淑
##淒
##淖
##淘
##淙
##淚
##淞
##淡
##淤
##淦
##淨
##淩
##淪
##淫
##淬
##淮
##深
##淳
##淵
##混
##淹
##淺
##添
##淼
##清
##済
##渉
##渊
##渋
##渍
##渎
##渐
##渔
##渗
##渙
##渚
##減
##渝
##渠
##渡
##渣
##渤
##渥
##渦
##温
##測
##渭
##港
##渲
##渴
##游
##渺
##渾
##湃
##湄
##湊
##湍
##湖
##湘
##湛
##湟
##湧
##湫
##湮
##湯
##湳
##湾
##湿
##満
##溃
##溅
##溉
##溏
##源
##準
##溜
##溝
##溟
##溢
##溥
##溧
##溪
##溫
##溯
##溱
##溴
##溶
##溺
##溼
##滁
##滂
##滄
##滅
##滇
##滋
##滌
##滑
##滓
##滔
##滕
##滙
##滚
##滝
##滞
##滟
##满
##滢
##滤
##滥
##滦
##滨
##滩
##滬
##滯
##滲
##滴
##滷
##滸
##滾
##滿
##漁
##漂
##漆
##漉
##漏
##漓
##演
##漕
##漠
##漢
##漣
##漩
##漪
##漫
##漬
##漯
##漱
##漲
##漳
##漸
##漾
##漿
##潆
##潇
##潋
##潍
##潑
##潔
##潘
##潛
##潜
##潞
##潟
##潢
##潤
##潦
##潧
##潭
##潮
##潰
##潴
##潸
##潺
##潼
##澀
##澄
##澆
##澈
##澍
##澎
##澗
##澜
##澡
##澤
##澧
##澱
##澳
##澹
##激
##濁
##濂
##濃
##濑
##濒
##濕
##濘
##濛
##濟
##濠
##濡
##濤
##濫
##濬
##濮
##濯
##濱
##濺
##濾
##瀅
##瀆
##瀉
##瀋
##瀏
##瀑
##瀕
##瀘
##瀚
##瀛
##瀝
##瀞
##瀟
##瀧
##瀨
##瀬
##瀰
##瀾
##灌
##灏
##灑
##灘
##灝
##灞
##灣
##火
##灬
##灭
##灯
##灰
##灵
##灶
##灸
##灼
##災
##灾
##灿
##炀
##炁
##炅
##炉
##炊
##炎
##炒
##炔
##炕
##炖
##炙
##炜
##炫
##炬
##炭
##炮
##炯
##炳
##炷
##炸
##点
##為
##炼
##炽
##烁
##烂
##烃
##烈
##烊
##烏
##烘
##烙
##烛
##烟
##烤
##烦
##烧
##烨
##烩
##烫
##烬
##热
##烯
##烷
##烹
##烽
##焉
##焊
##焕
##焖
##焗
##焘
##焙
##焚
##焜
##無
##焦
##焯
##焰
##焱
##然
##焼
##煅
##煉
##煊
##煌
##煎
##煒
##煖
##煙
##煜
##煞
##煤
##煥
##煦
##照
##煨
##煩
##煮
##煲
##煸
##煽
##熄
##熊
##熏
##熒
##熔
##熙
##熟
##熠
##熨
##熬
##熱
##熵
##熹
##熾
##燁
##燃
##燄
##燈
##燉
##燊
##燎
##燒
##燔
##燕
##燙
##燜
##營
##燥
##燦
##燧
##燭
##燮
##燴
##燻
##燼
##燿
##爆
##爍
##爐
##爛
##爪
##爬
##爭
##爰
##爱
##爲
##爵
##父
##爷
##爸
##爹
##爺
##爻
##爽
##爾
##牆
##片
##版
##牌
##牍
##牒
##牙
##牛
##牝
##牟
##牠
##牡
##牢
##牦
##牧
##物
##牯
##牲
##牴
##牵
##特
##牺
##牽
##犀
##犁
##犄
##犊
##犍
##犒
##犢
##犧
##犬
##犯
##状
##犷
##犸
##犹
##狀
##狂
##狄
##狈
##狎
##狐
##狒
##狗
##狙
##狞
##狠
##狡
##狩
##独
##狭
##狮
##狰
##狱
##狸
##狹
##狼
##狽
##猎
##猕
##猖
##猗
##猙
##猛
##猜
##猝
##猥
##猩
##猪
##猫
##猬
##献
##猴
##猶
##猷
##猾
##猿
##獄
##獅
##獎
##獐
##獒
##獗
##獠
##獣
##獨
##獭
##獰
##獲
##獵
##獷
##獸
##獺
##獻
##獼
##獾
##玄
##率
##玉
##王
##玑
##玖
##玛
##玟
##玠
##玥
##玩
##玫
##玮
##环
##现
##玲
##玳
##玷
##玺
##玻
##珀
##珂
##珅
##珈
##珉
##珊
##珍
##珏
##珐
##珑
##珙
##珞
##珠
##珣
##珥
##珩
##珪
##班
##珮
##珲
##珺
##現
##球
##琅
##理
##琇
##琉
##琊
##琍
##琏
##琐
##琛
##琢
##琥
##琦
##琨
##琪
##琬
##琮
##琰
##琲
##琳
##琴
##琵
##琶
##琺
##琼
##瑀
##瑁
##瑄
##瑋
##瑕
##瑗
##瑙
##瑚
##瑛
##瑜
##瑞
##瑟
##瑠
##瑣
##瑤
##瑩
##瑪
##瑯
##瑰
##瑶
##瑾
##璀
##璁
##璃
##璇
##璉
##璋
##璎
##璐
##璜
##璞
##璟
##璧
##璨
##環
##璽
##璿
##瓊
##瓏
##瓒
##瓜
##瓢
##瓣
##瓤
##瓦
##瓮
##瓯
##瓴
##瓶
##瓷
##甄
##甌
##甕
##甘
##甙
##甚
##甜
##生
##產
##産
##甥
##甦
##用
##甩
##甫
##甬
##甭
##甯
##田
##由
##甲
##申
##电
##男
##甸
##町
##画
##甾
##畀
##畅
##界
##畏
##畑
##畔
##留
##畜
##畝
##畢
##略
##畦
##番
##畫
##異
##畲
##畳
##畴
##當
##畸
##畹
##畿
##疆
##疇
##疊
##疏
##疑
##疔
##疖
##疗
##疙
##疚
##疝
##疟
##疡
##疣
##疤
##疥
##疫
##疮
##疯
##疱
##疲
##疳
##疵
##疸
##疹
##疼
##疽
##疾
##痂
##病
##症
##痈
##痉
##痊
##痍
##痒
##痔
##痕
##痘
##痙
##痛
##痞
##痠
##痢
##痣
##痤
##痧
##痨
##痪
##痫
##痰
##痱
##痴
##痹
##痺
##痼
##痿
##瘀
##瘁
##瘋
##瘍
##瘓
##瘘
##瘙
##瘟
##瘠
##瘡
##瘢
##瘤
##瘦
##瘧
##瘩
##瘪
##瘫
##瘴
##瘸
##瘾
##療
##癇
##癌
##癒
##癖
##癜
##癞
##癡
##癢
##癣
##癥
##癫
##癬
##癮
##癱
##癲
##癸
##発
##登
##發
##白
##百
##皂
##的
##皆
##皇
##皈
##皋
##皎
##皑
##皓
##皖
##皙
##皚
##皮
##皰
##皱
##皴
##皺
##皿
##盂
##盃
##盅
##盆
##盈
##益
##盎
##盏
##盐
##监
##盒
##盔
##盖
##盗
##盘
##盛
##盜
##盞
##盟
##盡
##監
##盤
##盥
##盧
##盪
##目
##盯
##盱
##盲
##直
##相
##盹
##盼
##盾
##省
##眈
##眉
##看
##県
##眙
##眞
##真
##眠
##眦
##眨
##眩
##眯
##眶
##眷
##眸
##眺
##眼
##眾
##着
##睁
##睇
##睏
##睐
##睑
##睛
##睜
##睞
##睡
##睢
##督
##睥
##睦
##睨
##睪
##睫
##睬
##睹
##睽
##睾
##睿
##瞄
##瞅
##瞇
##瞋
##瞌
##瞎
##瞑
##瞒
##瞓
##瞞
##瞟
##瞠
##瞥
##瞧
##瞩
##瞪
##瞬
##瞭
##瞰
##瞳
##瞻
##瞼
##瞿
##矇
##矍
##矗
##矚
##矛
##矜
##矢
##矣
##知
##矩
##矫
##短
##矮
##矯
##石
##矶
##矽
##矾
##矿
##码
##砂
##砌
##砍
##砒
##研
##砖
##砗
##砚
##砝
##砣
##砥
##砧
##砭
##砰
##砲
##破
##砷
##砸
##砺
##砼
##砾
##础
##硅
##硐
##硒
##硕
##硝
##硫
##硬
##确
##硯
##硼
##碁
##碇
##碉
##碌
##碍
##碎
##碑
##碓
##碗
##碘
##碚
##碛
##碟
##碣
##碧
##碩
##碰
##碱
##碳
##碴
##確
##碼
##碾
##磁
##磅
##磊
##磋
##磐
##磕
##磚
##磡
##磨
##磬
##磯
##磲
##磷
##磺
##礁
##礎
##礙
##礡
##礦
##礪
##礫
##礴
##示
##礼
##社
##祀
##祁
##祂
##祇
##祈
##祉
##祎
##祐
##祕
##祖
##祗
##祚
##祛
##祜
##祝
##神
##祟
##祠
##祢
##祥
##票
##祭
##祯
##祷
##祸
##祺
##祿
##禀
##禁
##禄
##禅
##禍
##禎
##福
##禛
##禦
##禧
##禪
##禮
##禱
##禹
##禺
##离
##禽
##禾
##禿
##秀
##私
##秃
##秆
##秉
##秋
##种
##科
##秒
##秘
##租
##秣
##秤
##秦
##秧
##秩
##秭
##积
##称
##秸
##移
##秽
##稀
##稅
##程
##稍
##税
##稔
##稗
##稚
##稜
##稞
##稟
##稠
##稣
##種
##稱
##稲
##稳
##稷
##稹
##稻
##稼
##稽
##稿
##穀
##穂
##穆
##穌
##積
##穎
##穗
##穢
##穩
##穫
##穴
##究
##穷
##穹
##空
##穿
##突
##窃
##窄
##窈
##窍
##窑
##窒
##窓
##窕
##窖
##窗
##窘
##窜
##窝
##窟
##窠
##窥
##窦
##窨
##窩
##窪
##窮
##窯
##窺
##窿
##竄
##竅
##竇
##竊
##立
##竖
##站
##竜
##竞
##竟
##章
##竣
##童
##竭
##端
##競
##竹
##竺
##竽
##竿
##笃
##笆
##笈
##笋
##笏
##笑
##笔
##笙
##笛
##笞
##笠
##符
##笨
##第
##笹
##笺
##笼
##筆
##等
##筊
##筋
##筍
##筏
##筐
##筑
##筒
##答
##策
##筛
##筝
##筠
##筱
##筲
##筵
##筷
##筹
##签
##简
##箇
##箋
##箍
##箏
##箐
##箔
##箕
##算
##箝
##管
##箩
##箫
##箭
##箱
##箴
##箸
##節
##篁
##範
##篆
##篇
##築
##篑
##篓
##篙
##篝
##篠
##篡
##篤
##篩
##篪
##篮
##篱
##篷
##簇
##簌
##簍
##簡
##簦
##簧
##簪
##簫
##簷
##簸
##簽
##簾
##簿
##籁
##籃
##籌
##籍
##籐
##籟
##籠
##籤
##籬
##籮
##籲
##米
##类
##籼
##籽
##粄
##粉
##粑
##粒
##粕
##粗
##粘
##粟
##粤
##粥
##粧
##粪
##粮
##粱
##粲
##粳
##粵
##粹
##粼
##粽
##精
##粿
##糅
##糊
##糍
##糕
##糖
##糗
##糙
##糜
##糞
##糟
##糠
##糧
##糬
##糯
##糰
##糸
##系
##糾
##紀
##紂
##約
##紅
##紉
##紊
##紋
##納
##紐
##紓
##純
##紗
##紘
##紙
##級
##紛
##紜
##素
##紡
##索
##紧
##紫
##紮
##累
##細
##紳
##紹
##紺
##終
##絃
##組
##絆
##経
##結
##絕
##絞
##絡
##絢
##給
##絨
##絮
##統
##絲
##絳
##絵
##絶
##絹
##綁
##綏
##綑
##經
##継
##続
##綜
##綠
##綢
##綦
##綫
##綬
##維
##綱
##網
##綴
##綵
##綸
##綺
##綻
##綽
##綾
##綿
##緊
##緋
##総
##緑
##緒
##緘
##線
##緝
##緞
##締
##緣
##編
##緩
##緬
##緯
##練
##緹
##緻
##縁
##縄
##縈
##縛
##縝
##縣
##縫
##縮
##縱
##縴
##縷
##總
##績
##繁
##繃
##繆
##繇
##繋
##織
##繕
##繚
##繞
##繡
##繩
##繪
##繫
##繭
##繳
##繹
##繼
##繽
##纂
##續
##纍
##纏
##纓
##纔
##纖
##纜
##纠
##红
##纣
##纤
##约
##级
##纨
##纪
##纫
##纬
##纭
##纯
##纰
##纱
##纲
##纳
##纵
##纶
##纷
##纸
##纹
##纺
##纽
##纾
##线
##绀
##练
##组
##绅
##细
##织
##终
##绊
##绍
##绎
##经
##绑
##绒
##结
##绔
##绕
##绘
##给
##绚
##绛
##络
##绝
##绞
##统
##绡
##绢
##绣
##绥
##绦
##继
##绩
##绪
##绫
##续
##绮
##绯
##绰
##绳
##维
##绵
##绶
##绷
##绸
##绻
##综
##绽
##绾
##绿
##缀
##缄
##缅
##缆
##缇
##缈
##缉
##缎
##缓
##缔
##缕
##编
##缘
##缙
##缚
##缜
##缝
##缠
##缢
##缤
##缥
##缨
##缩
##缪
##缭
##缮
##缰
##缱
##缴
##缸
##缺
##缽
##罂
##罄
##罌
##罐
##网
##罔
##罕
##罗
##罚
##罡
##罢
##罩
##罪
##置
##罰
##署
##罵
##罷
##罹
##羁
##羅
##羈
##羊
##羌
##美
##羔
##羚
##羞
##羟
##羡
##羣
##群
##羥
##羧
##羨
##義
##羯
##羲
##羸
##羹
##羽
##羿
##翁
##翅
##翊
##翌
##翎
##習
##翔
##翘
##翟
##翠
##翡
##翦
##翩
##翰
##翱
##翳
##翹
##翻
##翼
##耀
##老
##考
##耄
##者
##耆
##耋
##而
##耍
##耐
##耒
##耕
##耗
##耘
##耙
##耦
##耨
##耳
##耶
##耷
##耸
##耻
##耽
##耿
##聂
##聆
##聊
##聋
##职
##聒
##联
##聖
##聘
##聚
##聞
##聪
##聯
##聰
##聲
##聳
##聴
##聶
##職
##聽
##聾
##聿
##肃
##肄
##肅
##肆
##肇
##肉
##肋
##肌
##肏
##肓
##肖
##肘
##肚
##肛
##肝
##肠
##股
##肢
##肤
##肥
##肩
##肪
##肮
##肯
##肱
##育
##肴
##肺
##肽
##肾
##肿
##胀
##胁
##胃
##胄
##胆
##背
##胍
##胎
##胖
##胚
##胛
##胜
##胝
##胞
##胡
##胤
##胥
##胧
##胫
##胭
##胯
##胰
##胱
##胳
##胴
##胶
##胸
##胺
##能
##脂
##脅
##脆
##脇
##脈
##脉
##脊
##脍
##脏
##脐
##脑
##脓
##脖
##脘
##脚
##脛
##脣
##脩
##脫
##脯
##脱
##脲
##脳
##脸
##脹
##脾
##腆
##腈
##腊
##腋
##腌
##腎
##腐
##腑
##腓
##腔
##腕
##腥
##腦
##腩
##腫
##腭
##腮
##腰
##腱
##腳
##腴
##腸
##腹
##腺
##腻
##腼
##腾
##腿
##膀
##膈
##膊
##膏
##膑
##膘
##膚
##膛
##膜
##膝
##膠
##膦
##膨
##膩
##膳
##膺
##膻
##膽
##膾
##膿
##臀
##臂
##臃
##臆
##臉
##臊
##臍
##臓
##臘
##臟
##臣
##臥
##臧
##臨
##自
##臬
##臭
##至
##致
##臺
##臻
##臼
##臾
##舀
##舂
##舅
##舆
##與
##興
##舉
##舊
##舌
##舍
##舎
##舐
##舒
##舔
##舖
##舗
##舛
##舜
##舞
##舟
##航
##舫
##般
##舰
##舱
##舵
##舶
##舷
##舸
##船
##舺
##舾
##艇
##艋
##艘
##艙
##艦
##艮
##良
##艰
##艱
##色
##艳
##艷
##艹
##艺
##艾
##节
##芃
##芈
##芊
##芋
##芍
##芎
##芒
##芙
##芜
##芝
##芡
##芥
##芦
##芩
##芪
##芫
##芬
##芭
##芮
##芯
##花
##芳
##芷
##芸
##芹
##芻
##芽
##芾
##苁
##苄
##苇
##苋
##苍
##苏
##苑
##苒
##苓
##苔
##苕
##苗
##苛
##苜
##苞
##苟
##苡
##苣
##若
##苦
##苫
##苯
##英
##苷
##苹
##苻
##茁
##茂
##范
##茄
##茅
##茉
##茎
##茏
##茗
##茜
##茧
##茨
##茫
##茬
##茭
##茯
##茱
##茲
##茴
##茵
##茶
##茸
##茹
##茼
##荀
##荃
##荆
##草
##荊
##荏
##荐
##荒
##荔
##荖
##荘
##荚
##荞
##荟
##荠
##荡
##荣
##荤
##荥
##荧
##荨
##荪
##荫
##药
##荳
##荷
##荸
##荻
##荼
##荽
##莅
##莆
##莉
##莊
##莎
##莒
##莓
##莖
##莘
##莞
##莠
##莢
##莧
##莪
##莫
##莱
##莲
##莴
##获
##莹
##莺
##莽
##莿
##菀
##菁
##菅
##菇
##菈
##菊
##菌
##菏
##菓
##菖
##菘
##菜
##菟
##菠
##菡
##菩
##華
##菱
##菲
##菸
##菽
##萁
##萃
##萄
##萊
##萋
##萌
##萍
##萎
##萘
##萝
##萤
##营
##萦
##萧
##萨
##萩
##萬
##萱
##萵
##萸
##萼
##落
##葆
##葉
##著
##葚
##葛
##葡
##董
##葦
##葩
##葫
##葬
##葭
##葯
##葱
##葳
##葵
##葷
##葺
##蒂
##蒋
##蒐
##蒔
##蒙
##蒜
##蒞
##蒟
##蒡
##蒨
##蒲
##蒸
##蒹
##蒻
##蒼
##蒿
##蓁
##蓄
##蓆
##蓉
##蓋
##蓑
##蓓
##蓖
##蓝
##蓟
##蓦
##蓬
##蓮
##蓼
##蓿
##蔑
##蔓
##蔔
##蔗
##蔘
##蔚
##蔡
##蔣
##蔥
##蔫
##蔬
##蔭
##蔵
##蔷
##蔺
##蔻
##蔼
##蔽
##蕁
##蕃
##蕈
##蕉
##蕊
##蕎
##蕙
##蕤
##蕨
##蕩
##蕪
##蕭
##蕲
##蕴
##蕻
##蕾
##薄
##薅
##薇
##薈
##薊
##薏
##薑
##薔
##薙
##薛
##薦
##薨
##薩
##薪
##薬
##薯
##薰
##薹
##藉
##藍
##藏
##藐
##藓
##藕
##藜
##藝
##藤
##藥
##藩
##藹
##藻
##藿
##蘆
##蘇
##蘊
##蘋
##蘑
##蘚
##蘭
##蘸
##蘼
##蘿
##虎
##虏
##虐
##虑
##虔
##處
##虚
##虛
##虜
##虞
##號
##虢
##虧
##虫
##虬
##虱
##虹
##虻
##虽
##虾
##蚀
##蚁
##蚂
##蚊
##蚌
##蚓
##蚕
##蚜
##蚝
##蚣
##蚤
##蚩
##蚪
##蚯
##蚱
##蚵
##蛀
##蛆
##蛇
##蛊
##蛋
##蛎
##蛐
##蛔
##蛙
##蛛
##蛟
##蛤
##蛭
##蛮
##蛰
##蛳
##蛹
##蛻
##蛾
##蜀
##蜂
##蜃
##蜆
##蜇
##蜈
##蜊
##蜍
##蜒
##蜓
##蜕
##蜗
##蜘
##蜚
##蜜
##蜡
##蜢
##蜥
##蜱
##蜴
##蜷
##蜻
##蜿
##蝇
##蝈
##蝉
##蝌
##蝎
##蝕
##蝗
##蝙
##蝟
##蝠
##蝦
##蝨
##蝴
##蝶
##蝸
##蝼
##螂
##螃
##融
##螞
##螢
##螨
##螯
##螳
##螺
##蟀
##蟄
##蟆
##蟋
##蟎
##蟑
##蟒
##蟠
##蟬
##蟲
##蟹
##蟻
##蟾
##蠅
##蠍
##蠔
##蠕
##蠛
##蠟
##蠡
##蠢
##蠣
##蠱
##蠶
##蠹
##蠻
##血
##衄
##衅
##衆
##行
##衍
##術
##衔
##街
##衙
##衛
##衝
##衞
##衡
##衢
##衣
##补
##表
##衩
##衫
##衬
##衮
##衰
##衲
##衷
##衹
##衾
##衿
##袁
##袂
##袄
##袅
##袈
##袋
##袍
##袒
##袖
##袜
##袞
##袤
##袪
##被
##袭
##袱
##裁
##裂
##装
##裆
##裊
##裏
##裔
##裕
##裘
##裙
##補
##裝
##裟
##裡
##裤
##裨
##裱
##裳
##裴
##裸
##裹
##製
##裾
##褂
##複
##褐
##褒
##褓
##褔
##褚
##褥
##褪
##褫
##褲
##褶
##褻
##襁
##襄
##襟
##襠
##襪
##襬
##襯
##襲
##西
##要
##覃
##覆
##覇
##見
##規
##覓
##視
##覚
##覦
##覧
##親
##覬
##観
##覷
##覺
##覽
##觀
##见
##观
##规
##觅
##视
##览
##觉
##觊
##觎
##觐
##觑
##角
##觞
##解
##觥
##触
##觸
##言
##訂
##計
##訊
##討
##訓
##訕
##訖
##託
##記
##訛
##訝
##訟
##訣
##訥
##訪
##設
##許
##訳
##訴
##訶
##診
##註
##証
##詆
##詐
##詔
##評
##詛
##詞
##詠
##詡
##詢
##詣
##試
##詩
##詫
##詬
##詭
##詮
##詰
##話
##該
##詳
##詹
##詼
##誅
##誇
##誉
##誌
##認
##誓
##誕
##誘
##語
##誠
##誡
##誣
##誤
##誥
##誦
##誨
##說
##説
##読
##誰
##課
##誹
##誼
##調
##諄
##談
##請
##諏
##諒
##論
##諗
##諜
##諡
##諦
##諧
##諫
##諭
##諮
##諱
##諳
##諷
##諸
##諺
##諾
##謀
##謁
##謂
##謄
##謊
##謎
##謐
##謔
##謗
##謙
##講
##謝
##謠
##謨
##謬
##謹
##謾
##譁
##證
##譎
##譏
##識
##譙
##譚
##譜
##警
##譬
##譯
##議
##譲
##譴
##護
##譽
##讀
##變
##讓
##讚
##讞
##计
##订
##认
##讥
##讧
##讨
##让
##讪
##讫
##训
##议
##讯
##记
##讲
##讳
##讴
##讶
##讷
##许
##讹
##论
##讼
##讽
##设
##访
##诀
##证
##诃
##评
##诅
##识
##诈
##诉
##诊
##诋
##词
##诏
##译
##试
##诗
##诘
##诙
##诚
##诛
##话
##诞
##诟
##诠
##诡
##询
##诣
##诤
##该
##详
##诧
##诩
##诫
##诬
##语
##误
##诰
##诱
##诲
##说
##诵
##诶
##请
##诸
##诺
##读
##诽
##课
##诿
##谀
##谁
##调
##谄
##谅
##谆
##谈
##谊
##谋
##谌
##谍
##谎
##谏
##谐
##谑
##谒
##谓
##谔
##谕
##谗
##谘
##谙
##谚
##谛
##谜
##谟
##谢
##谣
##谤
##谥
##谦
##谧
##谨
##谩
##谪
##谬
##谭
##谯
##谱
##谲
##谴
##谶
##谷
##豁
##豆
##豇
##豈
##豉
##豊
##豌
##豎
##豐
##豔
##豚
##象
##豢
##豪
##豫
##豬
##豹
##豺
##貂
##貅
##貌
##貓
##貔
##貘
##貝
##貞
##負
##財
##貢
##貧
##貨
##販
##貪
##貫
##責
##貯
##貰
##貳
##貴
##貶
##買
##貸
##費
##貼
##貽
##貿
##賀
##賁
##賂
##賃
##賄
##資
##賈
##賊
##賑
##賓
##賜
##賞
##賠
##賡
##賢
##賣
##賤
##賦
##質
##賬
##賭
##賴
##賺
##購
##賽
##贅
##贈
##贊
##贍
##贏
##贓
##贖
##贛
##贝
##贞
##负
##贡
##财
##责
##贤
##败
##账
##货
##质
##贩
##贪
##贫
##贬
##购
##贮
##贯
##贰
##贱
##贲
##贴
##贵
##贷
##贸
##费
##贺
##贻
##贼
##贾
##贿
##赁
##赂
##赃
##资
##赅
##赈
##赊
##赋
##赌
##赎
##赏
##赐
##赓
##赔
##赖
##赘
##赚
##赛
##赝
##赞
##赠
##赡
##赢
##赣
##赤
##赦
##赧
##赫
##赭
##走
##赳
##赴
##赵
##赶
##起
##趁
##超
##越
##趋
##趕
##趙
##趟
##趣
##趨
##足
##趴
##趵
##趸
##趺
##趾
##跃
##跄
##跆
##跋
##跌
##跎
##跑
##跖
##跚
##跛
##距
##跟
##跡
##跤
##跨
##跩
##跪
##路
##跳
##践
##跷
##跹
##跺
##跻
##踉
##踊
##踌
##踏
##踐
##踝
##踞
##踟
##踢
##踩
##踪
##踮
##踱
##踴
##踵
##踹
##蹂
##蹄
##蹇
##蹈
##蹉
##蹊
##蹋
##蹑
##蹒
##蹙
##蹟
##蹣
##蹤
##蹦
##蹩
##蹬
##蹭
##蹲
##蹴
##蹶
##蹺
##蹼
##蹿
##躁
##躇
##躉
##躊
##躋
##躍
##躏
##躪
##身
##躬
##躯
##躲
##躺
##軀
##車
##軋
##軌
##軍
##軒
##軟
##転
##軸
##軼
##軽
##軾
##較
##載
##輒
##輓
##輔
##輕
##輛
##輝
##輟
##輩
##輪
##輯
##輸
##輻
##輾
##輿
##轄
##轅
##轆
##轉
##轍
##轎
##轟
##车
##轧
##轨
##轩
##转
##轭
##轮
##软
##轰
##轲
##轴
##轶
##轻
##轼
##载
##轿
##较
##辄
##辅
##辆
##辇
##辈
##辉
##辊
##辍
##辐
##辑
##输
##辕
##辖
##辗
##辘
##辙
##辛
##辜
##辞
##辟
##辣
##辦
##辨
##辩
##辫
##辭
##辮
##辯
##辰
##辱
##農
##边
##辺
##辻
##込
##辽
##达
##迁
##迂
##迄
##迅
##过
##迈
##迎
##运
##近
##返
##还
##这
##进
##远
##违
##连
##迟
##迢
##迤
##迥
##迦
##迩
##迪
##迫
##迭
##述
##迴
##迷
##迸
##迹
##迺
##追
##退
##送
##适
##逃
##逅
##逆
##选
##逊
##逍
##透
##逐
##递
##途
##逕
##逗
##這
##通
##逛
##逝
##逞
##速
##造
##逢
##連
##逮
##週
##進
##逵
##逶
##逸
##逻
##逼
##逾
##遁
##遂
##遅
##遇
##遊
##運
##遍
##過
##遏
##遐
##遑
##遒
##道
##達
##違
##遗
##遙
##遛
##遜
##遞
##遠
##遢
##遣
##遥
##遨
##適
##遭
##遮
##遲
##遴
##遵
##遶
##遷
##選
##遺
##遼
##遽
##避
##邀
##邁
##邂
##邃
##還
##邇
##邈
##邊
##邋
##邏
##邑
##邓
##邕
##邛
##邝
##邢
##那
##邦
##邨
##邪
##邬
##邮
##邯
##邰
##邱
##邳
##邵
##邸
##邹
##邺
##邻
##郁
##郅
##郊
##郎
##郑
##郜
##郝
##郡
##郢
##郤
##郦
##郧
##部
##郫
##郭
##郴
##郵
##郷
##郸
##都
##鄂
##鄉
##鄒
##鄔
##鄙
##鄞
##鄢
##鄧
##鄭
##鄰
##鄱
##鄲
##鄺
##酉
##酊
##酋
##酌
##配
##酐
##酒
##酗
##酚
##酝
##酢
##酣
##酥
##酩
##酪
##酬
##酮
##酯
##酰
##酱
##酵
##酶
##酷
##酸
##酿
##醃
##醇
##醉
##醋
##醍
##醐
##醒
##醚
##醛
##醜
##醞
##醣
##醪
##醫
##醬
##醮
##醯
##醴
##醺
##釀
##釁
##采
##釉
##释
##釋
##里
##重
##野
##量
##釐
##金
##釗
##釘
##釜
##針
##釣
##釦
##釧
##釵
##鈀
##鈉
##鈍
##鈎
##鈔
##鈕
##鈞
##鈣
##鈦
##鈪
##鈴
##鈺
##鈾
##鉀
##鉄
##鉅
##鉉
##鉑
##鉗
##鉚
##鉛
##鉤
##鉴
##鉻
##銀
##銃
##銅
##銑
##銓
##銖
##銘
##銜
##銬
##銭
##銮
##銳
##銷
##銹
##鋁
##鋅
##鋒
##鋤
##鋪
##鋰
##鋸
##鋼
##錄
##錐
##錘
##錚
##錠
##錢
##錦
##錨
##錫
##錮
##錯
##録
##錳
##錶
##鍊
##鍋
##鍍
##鍛
##鍥
##鍰
##鍵
##鍺
##鍾
##鎂
##鎊
##鎌
##鎏
##鎔
##鎖
##鎗
##鎚
##鎧
##鎬
##鎮
##鎳
##鏈
##鏖
##鏗
##鏘
##鏞
##鏟
##鏡
##鏢
##鏤
##鏽
##鐘
##鐮
##鐲
##鐳
##鐵
##鐸
##鐺
##鑄
##鑊
##鑑
##鑒
##鑣
##鑫
##鑰
##鑲
##鑼
##鑽
##鑾
##鑿
##针
##钉
##钊
##钎
##钏
##钒
##钓
##钗
##钙
##钛
##钜
##钝
##钞
##钟
##钠
##钡
##钢
##钣
##钤
##钥
##钦
##钧
##钨
##钩
##钮
##钯
##钰
##钱
##钳
##钴
##钵
##钺
##钻
##钼
##钾
##钿
##铀
##铁
##铂
##铃
##铄
##铅
##铆
##铉
##铎
##铐
##铛
##铜
##铝
##铠
##铡
##铢
##铣
##铤
##铨
##铩
##铬
##铭
##铮
##铰
##铲
##铵
##银
##铸
##铺
##链
##铿
##销
##锁
##锂
##锄
##锅
##锆
##锈
##锉
##锋
##锌
##锏
##锐
##锑
##错
##锚
##锟
##锡
##锢
##锣
##锤
##锥
##锦
##锭
##键
##锯
##锰
##锲
##锵
##锹
##锺
##锻
##镀
##镁
##镂
##镇
##镉
##镌
##镍
##镐
##镑
##镕
##镖
##镗
##镛
##镜
##镣
##镭
##镯
##镰
##镳
##镶
##長
##长
##門
##閃
##閉
##開
##閎
##閏
##閑
##閒
##間
##閔
##閘
##閡
##関
##閣
##閥
##閨
##閩
##閱
##閲
##閹
##閻
##閾
##闆
##闇
##闊
##闌
##闍
##闔
##闕
##闖
##闘
##關
##闡
##闢
##门
##闪
##闫
##闭
##问
##闯
##闰
##闲
##间
##闵
##闷
##闸
##闹
##闺
##闻
##闽
##闾
##阀
##阁
##阂
##阅
##阆
##阇
##阈
##阉
##阎
##阐
##阑
##阔
##阕
##阖
##阙
##阚
##阜
##队
##阡
##阪
##阮
##阱
##防
##阳
##阴
##阵
##阶
##阻
##阿
##陀
##陂
##附
##际
##陆
##陇
##陈
##陋
##陌
##降
##限
##陕
##陛
##陝
##陞
##陟
##陡
##院
##陣
##除
##陨
##险
##陪
##陰
##陲
##陳
##陵
##陶
##陷
##陸
##険
##陽
##隅
##隆
##隈
##隊
##隋
##隍
##階
##随
##隐
##隔
##隕
##隘
##隙
##際
##障
##隠
##隣
##隧
##隨
##險
##隱
##隴
##隶
##隸
##隻
##隼
##隽
##难
##雀
##雁
##雄
##雅
##集
##雇
##雉
##雋
##雌
##雍
##雎
##雏
##雑
##雒
##雕
##雖
##雙
##雛
##雜
##雞
##離
##難
##雨
##雪
##雯
##雰
##雲
##雳
##零
##雷
##雹
##電
##雾
##需
##霁
##霄
##霆
##震
##霈
##霉
##霊
##霍
##霎
##霏
##霑
##霓
##霖
##霜
##霞
##霧
##霭
##霰
##露
##霸
##霹
##霽
##霾
##靂
##靄
##靈
##青
##靓
##靖
##静
##靚
##靛
##靜
##非
##靠
##靡
##面
##靥
##靦
##革
##靳
##靴
##靶
##靼
##鞅
##鞋
##鞍
##鞏
##鞑
##鞘
##鞠
##鞣
##鞦
##鞭
##韆
##韋
##韌
##韓
##韜
##韦
##韧
##韩
##韬
##韭
##音
##韵
##韶
##韻
##響
##頁
##頂
##頃
##項
##順
##須
##頌
##預
##頑
##頒
##頓
##頗
##領
##頜
##頡
##頤
##頫
##頭
##頰
##頷
##頸
##頹
##頻
##頼
##顆
##題
##額
##顎
##顏
##顔
##願
##顛
##類
##顧
##顫
##顯
##顱
##顴
##页
##顶
##顷
##项
##顺
##须
##顼
##顽
##顾
##顿
##颁
##颂
##预
##颅
##领
##颇
##颈
##颉
##颊
##颌
##颍
##颐
##频
##颓
##颔
##颖
##颗
##题
##颚
##颛
##颜
##额
##颞
##颠
##颡
##颢
##颤
##颦
##颧
##風
##颯
##颱
##颳
##颶
##颼
##飄
##飆
##风
##飒
##飓
##飕
##飘
##飙
##飚
##飛
##飞
##食
##飢
##飨
##飩
##飪
##飯
##飲
##飼
##飽
##飾
##餃
##餅
##餉
##養
##餌
##餐
##餒
##餓
##餘
##餚
##餛
##餞
##餡
##館
##餮
##餵
##餾
##饅
##饈
##饋
##饌
##饍
##饑
##饒
##饕
##饗
##饞
##饥
##饨
##饪
##饬
##饭
##饮
##饯
##饰
##饱
##饲
##饴
##饵
##饶
##饷
##饺
##饼
##饽
##饿
##馀
##馁
##馄
##馅
##馆
##馈
##馋
##馍
##馏
##馒
##馔
##首
##馗
##香
##馥
##馨
##馬
##馭
##馮
##馳
##馴
##駁
##駄
##駅
##駆
##駐
##駒
##駕
##駛
##駝
##駭
##駱
##駿
##騁
##騎
##騏
##験
##騙
##騨
##騰
##騷
##驀
##驅
##驊
##驍
##驒
##驕
##驗
##驚
##驛
##驟
##驢
##驥
##马
##驭
##驮
##驯
##驰
##驱
##驳
##驴
##驶
##驷
##驸
##驹
##驻
##驼
##驾
##驿
##骁
##骂
##骄
##骅
##骆
##骇
##骈
##骊
##骋
##验
##骏
##骐
##骑
##骗
##骚
##骛
##骜
##骞
##骠
##骡
##骤
##骥
##骧
##骨
##骯
##骰
##骶
##骷
##骸
##骼
##髂
##髅
##髋
##髏
##髒
##髓
##體
##髖
##高
##髦
##髪
##髮
##髯
##髻
##鬃
##鬆
##鬍
##鬓
##鬚
##鬟
##鬢
##鬣
##鬥
##鬧
##鬱
##鬼
##魁
##魂
##魄
##魅
##魇
##魍
##魏
##魔
##魘
##魚
##魯
##魷
##鮑
##鮨
##鮪
##鮭
##鮮
##鯉
##鯊
##鯖
##鯛
##鯨
##鯰
##鯽
##鰍
##鰓
##鰭
##鰲
##鰻
##鰾
##鱈
##鱉
##鱔
##鱗
##鱷
##鱸
##鱼
##鱿
##鲁
##鲈
##鲍
##鲑
##鲛
##鲜
##鲟
##鲢
##鲤
##鲨
##鲫
##鲱
##鲲
##鲶
##鲷
##鲸
##鳃
##鳄
##鳅
##鳌
##鳍
##鳕
##鳖
##鳗
##鳝
##鳞
##鳥
##鳩
##鳳
##鳴
##鳶
##鴉
##鴕
##鴛
##鴦
##鴨
##鴻
##鴿
##鵑
##鵜
##鵝
##鵡
##鵬
##鵰
##鵲
##鶘
##鶩
##鶯
##鶴
##鷗
##鷲
##鷹
##鷺
##鸚
##鸞
##鸟
##鸠
##鸡
##鸢
##鸣
##鸥
##鸦
##鸨
##鸪
##鸭
##鸯
##鸳
##鸵
##鸽
##鸾
##鸿
##鹂
##鹃
##鹄
##鹅
##鹈
##鹉
##鹊
##鹌
##鹏
##鹑
##鹕
##鹘
##鹜
##鹞
##鹤
##鹦
##鹧
##鹫
##鹭
##鹰
##鹳
##鹵
##鹹
##鹼
##鹽
##鹿
##麂
##麋
##麒
##麓
##麗
##麝
##麟
##麥
##麦
##麩
##麴
##麵
##麸
##麺
##麻
##麼
##麽
##麾
##黃
##黄
##黍
##黎
##黏
##黑
##黒
##黔
##默
##黛
##黜
##黝
##點
##黠
##黨
##黯
##黴
##鼋
##鼎
##鼐
##鼓
##鼠
##鼬
##鼹
##鼻
##鼾
##齁
##齊
##齋
##齐
##齒
##齡
##齢
##齣
##齦
##齿
##龄
##龅
##龈
##龊
##龋
##龌
##龍
##龐
##龔
##龕
##龙
##龚
##龛
##龜
##龟
##︰
##︱
##︶
##︿
##﹁
##﹂
##﹍
##﹏
##﹐
##﹑
##﹒
##﹔
##﹕
##﹖
##﹗
##﹙
##﹚
##﹝
##﹞
##﹡
##﹣
##！
##＂
##＃
##＄
##％
##＆
##＇
##（
##）
##＊
##，
##－
##．
##／
##：
##；
##＜
##？
##＠
##［
##＼
##］
##＾
##＿
##｀
##ｆ
##ｈ
##ｊ
##ｕ
##ｗ
##ｚ
##｛
##｝
##｡
##｢
##｣
##､
##･
##ｯ
##ｰ
##ｲ
##ｸ
##ｼ
##ｽ
##ﾄ
##ﾉ
##ﾌ
##ﾗ
##ﾙ
##ﾝ
##ﾞ
##ﾟ
##￣
##￥
##👍
##🔥
##😂
##😎
“
”
髙
逺
卽
郞
葢
隂
淸
欤
厯
懐
竒
嵗
闗
旣
尙
曷
曽
賔
廪
寳
呉
苾
蠲
靑
彊
夀
筮
迳
赍
谿
乆
宻
掾
迨
雠
豕
僞
幷
吿
拏
逋
疋
徧
鬻
噫
茍
鳯
扵
憍
忝
鄕
鎭
曩
帙
诂
畧
荅
禘
矧
牖
轸
逹
赀
疎
洎
闱
讵
踰
劄
祔
寤
辂
寜
邾
缗
籴
鬭
叅
眇
囘
邉
彖
徃
盍
勅
寔
勲
翕
歟
沔
戢
牀
辔
黙
烝
赉
拊
徂
旄
覩
胪
黼
冦
瞽
栁
殄
摭
杲
跸
眀
恂
愼
穰
缁
怛
鬬
逰
箧
雩
鞫
剡
鬯
贽
飮
旒
邠
寘
屦
凫
閭
氵
鴈
詁
隰
竦
圉
诳
祫
埽
裒
徭
薮
柰
纡
庑
謚
殚
闼
蓍
苴
砦
訾
祧
缯
藁
醢
臯
瓠
阃
㠯
觧
侔
圗
俦
僉
欹
飭
郓
縻
阼
譌
笾
潁
鉢
扃
閤
俛
慝
璘
鼔
郛
麤
纥
鸱
粜
贶
遘
槩
A
翮
瘗
豳
鄜
隄
攷
隳
廵
惓
謫
簟
嶷
茔
簋
亹
陜
觌
圮
爨
躔
嚩
瘥
𠡠
勑
觚
穑
瓘
亻
舄
骖
倅
踈
螭
苌
悭
寖
凖
竝
觴
澶
菴
闳
罍
驺
笄
箓
鋭
隗
衽
笳
叚
畋
籥
笥
輙
搢
禋
亶
逡
匏
嬖
耜
廨
纎
鬘
阗
杪
揺
沆
蒯
嘏
艸
厓
泚
躅
禳
奭
弇
詈
鄴
聼
筭
旰
諌
汜
颙
廛
媪
媵
熈
絜
桷
抃
恽
樗
谮
陁
黻
B
篚
亷
芟
犂
诒
璠
钅
懽
纟
遯
閟
逖
胙
夤
绖
髀
俶
屣
麈
孥
磔
扆
湏
菑
洫
愠
駮
愔
讦
勰
诔
慙
帏
湜
儻
輦
夬
瘳
廼
愬
缟
绂
瓌
賛
劬
覈
侪
虺
覲
诮
栢
晡
阊
讎
旸
缌
寃
C
硃
怿
纛
壻
疠
藴
劒
褰
驩
谠
媿
泐
阍
籀
悃
襦
峩
殽
筌
眚
溷
驽
绌
靣
蘧
翥
欵
陬
鹗
兕
頽
遹
黥
珰
磴
刋
黩
悛
觇
闋
旆
讣
缵
皃
諍
牘
畤
佺
鬲
迓
帻
袴
緖
彘
缶
讒
菰
膂
缣
薜
偪
聨
偓
辎
羮
甑
堞
褊
燠
扌
羙
谳
鳏
謡
遄
鉏
奁
闈
阏
跂
蠧
觜
翛
馘
忄
舁
诜
揵
苖
聃
礮
𪿫
郯
飧
垓
畨
蛩
罴
郗
緡
槊
饩
侂
毳
悮
桴
縠
酤
姤
搆
埒
坼
楯
弨
詎
鷄
穉
貲
偁
祼
倨
粢
畎
玕
酹
豸
馑
菹
鞞
糴
琯
惻
璩
疴
琚
薤
悫
兗
飬
跣
镫
觯
殂
汭
睺
甃
刳
欷
宄
蘖
罅
锜
彚
眄
洺
慊
坻
陉
洊
黾
軫
忉
鸩
纮
冝
齎
矦
朓
罟
鵠
沴
绐
鈐
鉞
髭
囷
沩
栝
芰
骢
窣
骎
堦
彀
纻
槖
赙
昻
洧
僣
S
恱
栻
窆
饔
沤
佉
茆
罽
喑
酆
僊
D
唵
濵
觔
螟
镬
駢
搴
畛
貉
旂
诎
鼙
圹
栴
廩
佾
殛
飏
塲
揜
髣
P
鸷
汧
籓
阝
髴
妬
繄
祓
挍
埙
摛
嶠
澣
圯
鄯
锍
彛
秪
翺
鼍
濩
颕
斁
莼
輅
謇
滹
讐
廻
刖
鲠
蒌
摅
狃
絷
昃
渌
炤
荦
篋
翚
冩
鲧
蘂
郄
坫
旛
讙
喾
甓
蓐
𫄨
絺
卬
揲
祲
瘵
酺
牂
衤
愦
牋
濶
冡
貊
赜
悰
斾
驪
筦
阯
簠
臚
賸
逄
禆
舡
禊
堠
螫
椀
纒
轡
螽
竈
顚
柝
勗
棰
蓺
甞
寕
晳
刼
兊
緜
軰
瘼
貎
轂
巉
埭
伋
僦
緇
镞
鄣
贄
蜩
酈
壝
鐡
珽
蕖
虗
礻
镒
裼
荛
棐
櫂
𫖮
麁
顗
哙
瓚
麹
讠
噐
秫
掊
渑
秬
禫
腠
纩
瑱
夘
縢
陔
燾
韫
浍
悒
滎
T
狷
縉
玊
雝
呪
昺
賚
殳
躐
骝
锷
蘄
厐
箪
夲
頥
邙
棨
斲
懃
铙
鄠
轺
橛
駡
曛
竑
踣
卹
喈
庀
劓
𬞟
閫
髫
蒺
畆
顓
髠
搦
湲
廡
衎
屨
妫
枵
钲
詒
F
爼
歔
锴
瘕
蘩
觏
饫
筇
蘅
荩
骃
恊
扞
殪
廕
鲂
垞
皤
懔
鍼
甍
鞮
勦
斵
蹕
韪
掎
擿
鳧
邴
蔟
弢
垆
蹰
翫
卭
髡
渇
欬
諂
溲
喩
塡
邶
苎
跏
埏
缦
垅
畬
茕
劔
驃
逭
陴
藪
烜
駟
誑
擯
霅
幞
鄫
檠
帔
殫
頴
婬
巵
崤
郃
杌
騫
斿
儔
缫
逦
紆
牾
猺
畚
埴
湔
檝
葑
骀
暠
茀
榇
脔
怍
擐
K
忭
缾
躡
缑
昬
噉
偹
哕
貺
郇
庻
燹
艶
摽
缛
霤
毖
綰
衒
岿
駙
棼
屛
镝
窳
誊
煬
倂
辀
塋
镠
苐
暾
闥
峄
燬
鼈
滉
讖
荇
紇
蜉
尅
餽
鳬
𪟝
勣
歿
軻
旐
骘
鄆
莳
閬
廸
悝
狥
慿
缊
湎
鸮
髑
荑
酲
癯
鴟
鼇
栊
鹓
窅
I
臞
柟
夐
倣
颀
瀹
坌
砀
蕞
魑
涑
羼
盻
郾
牕
犭
薫
䕶
闿
璣
瑊
桞
踬
跗
辏
邽
喁
榦
棫
曁
涘
罘
磵
埶
庳
箜
鲵
惲
澂
篌
傧
窭
飡
諛
甿
繒
殑
逓
胷
襃
朅
踯
塍
嫠
浥
铳
盩
戯
磧
猱
宼
愴
漶
趍
豨
藳
燋
瞀
椠
撙
啭
椟
汚
狁
浹
坰
蔀
諤
羇
秾
缋
愎
澌
枲
鶻
M
芗
綍
朂
膴
籖
祏
齧
龠
皦
竪
泝
蜺
糁
郏
阨
虵
摶
肸
皁
𪩘
涖
鞶
巘
蘓
缃
萑
頊
赟
牓
緫
棃
塟
瘿
刲
蕡
棻
匄
醅
玦
僃
瑭
毬
槪
癃
𬬻
鑪
辋
猊
顒
盦
菉
诹
谵
啐
慤
虀
朶
囬
瘞
刬
贳
嵎
颎
捃
崄
荜
鲔
榼
尒
覿
鹢
蘗
秕
沚
儁
湣
鲋
舲
饣
埜
沄
㑹
贠
斝
虿
愀
崦
𦶟
爇
紏
璆
厔
龃
郕
蓊
掞
惛
巂
倞
镈
儗
皷
庥
瀼
E
蒇
虡
跬
谂
龉
嵓
㮣
糶
尢
廑
绁
锸
棊
撄
祊
濞
畯
帨
驂
籩
泺
枹
柁
玘
𫄸
纁
芑
嶓
鞬
縹
驤
澥
冐
憙
酎
歘
僇
殻
潯
箨
麄
郿
暎
穡
獬
矻
戆
勍
櫜
偾
朏
鏁
羃
锱
讜
楙
蹀
顥
鬛
硏
煑
畱
皞
騶
湓
鐫
滏
釒
鼗
鄘
諠
籙
騐
箬
翣
聩
怫
嗾
肫
暘
罇
梃
砻
慥
呌
餍
犴
襜
譔
泲
濓
襚
闐
噍
鹖
厠
虖
焞
隹
拶
旟
皥
舻
禰
歃
舣
篾
绋
颋
圎
龢
颃
忮
柷
緌
窬
渟
厎
蠖
揔
蓂
璹
洳
稾
鍪
迕
穸
缒
綂
窻
壖
惔
玙
謳
硖
淝
瞍
磻
瞢
轵
鬪
邅
罥
绠
壸
綃
蜮
伛
溽
譖
莩
溘
倐
氅
貍
轹
罨
舘
攽
黟
鳣
瘅
萏
樛
鹆
篦
蠃
熳
畵
挐
氊
䌷
誐
翀
羝
摠
袷
蚡
莭
殍
瀣
铏
傒
咈
詧
逈
遡
瑑
鄄
絰
誚
凟
曵
泔
倕
丗
舳
卣
怱
浼
勔
誄
廐
罝
兎
唎
禇
欻
恧
嚬
骍
嶸
敔
鶚
镵
锓
睠
塹
紱
賒
嚚
伾
僰
鲙
矟
麕
槀
滛
埀
幃
剞
釡
閶
鴣
H
禖
懌
鶉
霪
绨
鷓
紬
挿
岧
韡
笮
鷃
訐
隲
粝
剀
怃
醵
赗
丱
𫖯
沬
枌
箦
铦
鴂
髽
劂
蛉
纘
耑
闬
徯
枥
憺
殱
邗
峣
肜
睒
禩
駸
擗
垍
踔
绹
轳
徤
鹪
渫
袆
悕
呑
讃
紈
垤
跽
恹
嶲
躭
嫄
嫋
廹
哓
饧
蚋
嗌
芘
秖
寍
璫
粦
颺
溆
忾
稊
鑠
鬰
缞
溍
郘
駑
戋
葅
葶
潏
廙
䟽
閽
鏊
翃
〼
櫟
瀍
硎
箎
袠
彳
茇
擣
𢭏
萇
繙
餙
犇
侁
嫗
嬾
縞
朞
醖
蹐
谡
奩
泆
玚
枞
濳
捽
廏
擕
醑
錡
斠
曺
晻
縊
趱
旴
幰
疢
呶
窀
䜣
璪
欝
剸
狝
酾
汊
赇
婇
杙
糓
楡
铖
厖
姮
觽
宀
藟
廱
硗
冑
伥
蝮
涴
赒
酴
漭
藂
菼
糈
梼
謩
畊
秔
烱
岵
巇
沇
筓
綮
茝
𪸩
蛄
睂
蝣
嗛
煇
禴
瓔
釭
詵
刓
厪
罏
筯
轝
岢
曈
䜩
齑
脰
崒
靺
谖
暵
訢
𫏋
逌
蹻
佽
鹾
愒
艽
捫
濊
隩
仡
魃
泖
逯
劘
紵
黷
讌
泒
憝
螣
簃
綉
睚
聫
覊
蛸
荄
絫
禜
笻
廆
黉
惸
縑
聮
罾
罣
裏
灋
刂
嵚
緦
矰
苈
飖
觳
蟊
𬀩
癘
垲
怳
甎
幘
庋
盬
瘰
匦
寀
㧑
鰥
鐙
謟
訃
鈿
屺
郈
濇
筥
楛
鼯
咺
麇
洿
覘
澁
羑
眊
浞
雱
鼌
敭
呰
褎
甡
沍
垸
慇
洟
踽
爚
壙
楗
嚭
飇
湼
捜
鄮
嗢
躄
扐
觱
謦
騖
瓿
卨
阽
楩
閼
跼
儵
曀
N
猨
𣸣
鋋
檇
濆
鹍
玭
鞨
娈
緲
帱
驄
澒
塜
魋
朘
璚
枻
痩
桄
棁
铫
儇
遝
枨
雘
簮
脞
铗
傕
廌
倮
嗥
媸
澨
辚
昜
鹥
蛱
缬
𫄥
淯
麞
橈
虓
僎
輴
撝
纚
趯
漚
汔
踧
飱
赆
诖
羆
潄
缧
餼
幪
犖
酂
簒
黽
偲
龂
伧
陘
扄
絀
筿
縦
诐
锾
觿
旡
賫
嵒
簴
𬯎
狯
顙
諶
狖
隤
帟
馂
昫
攅
羶
篥
酳
讟
镪
鸜
鹯
蓰
讬
阒
櫓
疰
砢
緼
諲
彞
暍
顰
瓉
枿
蓏
奨
鄖
雊
鄗
邲
啁
訚
簏
洑
枘
娯
阛
咥
隷
镮
侩
髟
疒
鼂
詟
鲊
塼
淛
絪
鹩
𫓧
鈇
漑
嫱
襞
嗄
覔
穏
輜
煕
鵞
萆
饉
翬
呬
寗
扺
泬
頞
歊
挼
䇲
𫏐
蹔
蝥
皝
彜
咍
噀
柽
螘
崞
抔
剰
箠
崟
蕘
轓
鎸
攴
𬤇
簉
韐
渰
兾
嘒
蹷
兪
賻
仵
攄
筴
賾
啇
趂
闚
洌
耰
菔
珝
愊
晧
矞
襕
倥
龁
頺
憯
捦
聱
竢
媮
凢
賖
胾
耤
𬨎
龀
爝
輶
俅
鼒
牁
蕅
恉
敇
灊
羖
叄
犨
呴
礿
铓
檣
瘝
仭
镡
夣
绤
槚
恠
慆
廋
轘
髹
𫐌
眴
唶
璈
凊
觖
軿
儞
翾
𬮱
汸
髩
廒
絇
闉
杻
駰
悁
偸
哜
禔
蔌
墁
俵
蒉
迍
柅
璵
韞
隃
轾
屧
蕋
幙
迮
鸰
阓
詘
趄
虮
韎
蒱
麑
槧
酡
穽
㝢
耔
栌
䃅
嚳
卺
毌
搠
軺
﨑
脤
縵
𫗧
剏
蚍
胠
崿
餗
黧
褕
嶤
捄
绉
䝉
塙
臑
傉
搨
芼
踖
刭
硁
笱
尨
紿
昪
裛
忸
澮
襍
瓞
唼
氍
綘
魉
G
硙
𬘡
厰
蜎
胼
鬐
耎
稂
鞯
朒
逑
轫
刄
衘
糇
覯
爕
R
敉
勷
貤
聦
躞
塈
鬷
褧
咷
鷙
嶒
刿
踦
筼
釆
槱
蔕
寯
閦
辵
觋
惝
卄
匜
柤
攵
慼
鯀
蜣
頳
罳
镆
狴
漈
甗
輈
贜
鸬
睟
栲
縶
崚
鬴
袵
簞
𫮃
磾
噭
墠
鍇
莸
㫖
裯
筩
铚
澠
恝
㲲
蕺
蓴
閙
楶
盌
瑴
鏜
鎻
捭
珦
眡
𪫺
郐
鼉
馱
毵
驵
憸
阌
烺
輞
嬋
爌
祃
韙
𫗴
獍
𥩟
竚
鲭
褭
欃
絓
鞚
訇
枏
穜
饘
迆
茌
唫
淂
柙
纊
L
浐
媺
濰
鯁
憇
飜
瓈
穵
穠
杕
媟
衂
妯
禕
癎
痾
舠
瘐
觶
盭
牷
骓
螻
牣
鵷
诇
壠
晬
櫺
闓
崈
蠋
俣
裀
璲
惎
胔
藺
緱
愽
騮
鯤
狺
熺
鐃
骙
酏
咮
赪
鼷
啗
襌
椓
狻
嚅
篲
褾
麛
瞆
嶮
鸧
𬴂
辠
騑
瘖
蠭
虙
熛
悞
泂
璮
竁
绲
黡
栱
鹚
猃
巋
籞
薝
倓
頋
羗
箑
倢
轕
戣
鎰
搘
燐
宂
稡
飐
灤
稌
飔
𫇭
撾
尫
缳
沨
飫
悋
祅
閴
飈
憒
僝
斚
𬸦
騈
鷟
晢
𫖳
骫
醿
頵
歠
蕚
亸
鏃
窊
虩
𬴊
驎
奡
裦
騾
洚
漷
谇
諉
籧
噲
鮫
暕
熖
剗
蜑
睆
镃
燝
疃
敚
醎
跕
睎
酃
卲
譛
鸲
矱
韝
岣
晙
麐
酅
鷇
腯
惙
垕
幵
釂
褁
钖
縂
嵫
糵
琎
耼
禬
忞
姞
皕
厶
僂
珵
嶪
柎
颿
壚
炰
苧
猋
𬱟
頠
煢
湑
𣃁
J
㪷
𦈡
偬
斸
趫
槔
繻
娌
窾
飴
桯
鍜
谞
鯈
阘
駞
𫘞
嗃
撺
絛
芤
葸
抆
駘
祆
鴞
虒
玢
賨
贑
𫎬
𫘤
啴
騃
嚢
哷
靁
堨
鋟
摉
禨
鄩
𬩽
冺
惄
嵝
猒
毹
钹
𫖇
滃
鞾
縟
弍
鏐
弆
頎
𫄧
綖
馌
饎
菆
岏
姱
芣
豗
恇
棓
筸
楬
瀁
掄
慱
莾
綯
蟇
坱
娵
珌
曡
蟪
穟
蝻
歜
嬀
𫷷
廞
爟
媢
𫗦
嗫
嶰
橦
餔
獞
泅
𫛳
崱
捝
惒
呾
榘
鵩
櫳
幛
佖
妁
龆
堊
琤
綝
𬘭
漙
蓠
𬣙
昞
渼
痏
鉦
柂
𫗵
饟
襮
歈
韨
蹁
訏
玃
獯
谫
鎛
醁
呿
椑
塤
踶
镢
螵
躧
𬭎
譟
笴
勚
鋐
驲
闞
藋
蚶
饤
繖
囀
熲
窋
蜼
鸶
眭
醨
牐
臛
臠
帡
亓
畮
嶧
黿
滪
舃
槨
髃
皛
峘
螗
鴆
餬
耇
躓
魴
雚
昝
摵
粃
郪
櫬
煆
芨
珤
纉
婣
𫍯
偘
汋
膋
蠓
獘
瓖
螬
玆
镊
諴
橅
叆
蹢
眵
酖
皪
鷁
邐
泇
敧
忼
跱
茰
蓀
煴
𤩽
瓛
鶑
厤
爓
蚃
鸝
癰
筚
薷
篨
贇
肻
渧
黮
伷
褖
窶
墐
輹
欿
昩
婼
蕰
踆
炘
阄
𬘘
啣
紞
磈
縿
俜
㶉
楅
㦸
阬
𪨗
駉
𬳶
劻
薿
屩
砮
揑
嵲
锽
鹙
𬪩
緗
斮
怊
薌
騭
鍔
𬱖
攖
頔
嬈
醲
茈
玼
娀
厾
鹡
牿
濙
騕
礬
鹬
毉
敻
恟
灂
薾
藎
錬
鱣
鯢
齍
繢
舋
澉
摰
憀
鸂
巑
湆
瑳
鏑
麀
甒
圊
螈
敺
穣
湢
傜
窰
跞
埳
焮
鞴
簨
繅
麰
崕
圬
珧
鶡
慭
壌
顇
锧
蛴
銕
赩
䖍
旉
麌
妗
薺
诓
樅
敩
𬙂
鸤
迯
鹇
牸
縯
佹
觕
糒
櫝
巃
梱
嚙
翙
韃
刦
縗
蝤
蚨
麯
簜
鸛
礲
缲
旍
酇
瑒
鬳
擥
霨
笭
漼
琫
𣨼
趼
倧
儛
鹣
橚
殢
厫
嘐
蝝
𫄙
酽
糺
紒
浡
靷
莂
襖
殮
裈
蓣
訿
茋
礟
縚
搉
鑱
蹯
𫖒
韠
齟
崢
麃
壎
埓
臿
畇
亾
僴
璅
罸
蹠
頖
戱
帀
蜾
鲐
壼
虯
麫
耉
甽
舴
㮚
赑
仳
戺
禠
齬
灔
傔
㮈
銛
墬
彴
鸺
擧
碭
萹
礧
膰
旜
𬯀
潾
彡
麨
𪎊
喤
黈
嵸
踘
O
岊
郟
隮
湩
眘
怩
鬒
唃
宷
嫫
V
畺
砑
杅
襆
壍
渖
擭
鱠
籯
簣
鞲
橑
眂
頲
沲
戇
嫓
噏
涬
鞕
伻
翿
筜
鍤
攲
謷
憕
蚬
砉
麪
佀
碏
𫗪
餧
柈
匃
匽
駹
糢
滱
抶
侘
臡
跧
鲇
𬭚
堧
鮌
櫽
錞
挻
齪
朿
豭
懣
岨
鑛
熇
澔
軓
僶
箾
閈
澼
驁
冣
蚖
猢
皐
崐
揠
脽
紼
摴
恡
劼
硤
㕶
𤞤
柶
煐
蔹
玁
碻
𫇴
蒭
鞔
搒
衇
笫
憗
鮒
衺
鹁
餋
锼
邡
伃
疐
魈
鞌
螀
兠
姸
搥
冱
傺
甪
稺
矼
縡
骭
抳
礱
觫
鄀
浈
茷
苢
尠
璥
堉
輳
躱
濼
咢
鶂
茑
軹
誾
頏
琱
悆
艤
狲
蓱
朩
偰
痟
滈
𫔶
掯
禑
紕
瀵
闑
嵂
隟
𧏖
蠙
鼽
跢
旼
凂
㸔
綆
戩
宐
闶
纴
顸
鳜
栟
躑
醽
尪
殣
葊
黹
敳
擩
禼
劢
籜
鼃
篴
鲰
艎
蠆
囏
蟫
屮
糝
桮
箙
讱
澐
筰
跫
麏
薁
蹌
饜
栘
苽
輭
鞵
诪
𫄠
蠁
眎
螾
猓
豻
絙
醆
幨
鍳
阸
篯
屃
櫪
錙
瘈
怗
𫘧
騄
崘
颣
羕
窞
漻
蕆
袿
袗
亊
韈
迻
馿
彯
鍧
艨
挢
戞
嚶
蚳
䘏
鶵
骕
鰕
𫚥
搊
鼛
狶
騋
悊
磎
搃
佷
甆
褘
鐻
诨
𫄟
絁
薶
艟
痡
簀
僨
嶢
嫪
鷩
𫜁
儐
汳
棬
狌
鱓
昽
磝
𬟽
鵶
颟
枅
霂
鉶
蝀
堋
傴
澘
晐
栳
褵
茘
钑
涚
醳
滫
痁
蚿
罙
繐
皡
愐
賙
鄚
泜
阋
澇
楪
梠
酧
阤
檿
裋
檮
緅
臮
聵
騂
穄
簑
嘬
枒
姙
忳
窔
踳
莨
晊
剕
愞
眢
顦
盝
湻
鬂
襴
鸎
牗
铍
蓽
腧
戽
嗸
纑
蹏
嗏
鷦
琁
鋆
奫
𬬮
箘
焄
柲
珫
珎
癭
鋹
橰
諐
窌
詶
軄
齓
肹
猘
譍
毐
縓
瑨
灃
塨
䌹
萚
呫
襢
箚
恓
廾
犆
攺
璡
姧
匊
嚫
醻
憮
瞷
鞓
斆
栒
賵
偫
慓
巗
𪨷
廽
墦
妺
倀
駃
𫘝
濈
𫔎
縀
揾
辶
涒
鐍
鄏
篔
郳
褴
骹
脗
劖
僾
茢
艫
晼
曶
懨
煚
悤
熯
臲
轢
琖
愙
嶔
鷰
哢
𫕥
稑
埝
霣
筤
噂
卩
颻
洭
蓨
臝
廄
刱
鹠
巓
傃
賕
墼
𨱎
嶻
扢
鍮
蝘
苶
駴
凉
冓
斨
軷
𫐈
姁
堲
峕
蔴
蜋
悢
鷂
醊
沕
滍
𫍢
柸
譊
豝
鄊
棅
屼
胏
𫐉
軨
鞉
榑
冫
狨
鵙
淟
釃
溵
敫
㶟
瀦
囓
䓕
娭
秏
洴
霙
薳
𬸚
飰
霶
莛
岍
鬵
僬
圠
槥
鸑
鵒
锊
樨
蔿
軛
遰
㝹
窴
庿
慜
昳
袝
珔
邘
詖
糲
揅
粻
艴
轤
菶
啚
屙
儳
韔
汍
圌
帢
疉
鬨
靨
豋
銼
蛣
皭
鵻
烖
縋
綈
礽
紾
彍
𫟹
塽
趑
琭
俌
浟
鉷
薢
耏
鹔
秠
笪
灩
箄
舢
𪣻
灧
湝
塿
攟
桕
哿
繘
朌
髤
溇
蚺
臏
剟
搰
骳
絅
窱
塏
諼
熸
鼖
趦
獮
揷
𬙊
醤
霡
纆
𫐄
籕
氂
謌
裓
俫
砆
綣
淠
灕
捔
軏
丅
慁
牎
邜
桼
馺
壄
夗
慍
騩
圪
慠
佪
鳊
疬
搤
襈
薉
袛
埿
嘵
闤
儦
辝
潨
鴒
傖
筈
鳢
漘
棖
蟺
輀
谽
𫛶
栭
媕
鶒
賮
卌
矬
溈
贋
鲎
洨
剴
𪭢
檃
椘
蚰
淥
䝙
摐
籹
楳
鋏
鼏
攈
漦
薖
溠
辒
黌
逷
犫
暁
禡
眹
稃
呖
晜
鋌
餠
錱
潙
唅
逴
櫩
傪
畞
䇿
瑢
脬
𬸣
鶱
蔲
刅
㔉
惽
憖
哝
韣
鐶
皜
噣
懆
吷
愾
鐔
闃
餳
饾
翽
䯄
觝
衖
𬺈
駵
𬘓
紃
甔
萯
躃
齮
槅
懟
杇
𬤊
畟
諟
蟜
𫊸
輤
惣
窎
蒍
蘘
筳
𬘩
綎
匭
芄
閧
榾
鹺
慴
宬
靸
歗
椶
遫
嫜
猰
搯
嵕
綷
箒
潬
陊
埆
袽
陿
齗
涊
獪
𫐐
腨
硜
檥
檟
霔
輗
蕣
裵
沜
飂
𣲗
蠏
湋
谰
鵾
巛
灉
罻
傎
葽
湨
鼫
颏
𫸩
彄
踠
斄
儺
闟
蛺
焫
鼪
醾
袐
谺
碔
醓
袚
齔
讋
焴
籛
簳
喓
簁
臈
劚
𫐖
禭
挏
䕷
傞
荂
垜
勠
貙
飗
紲
𫈵
痖
蜞
秅
掔
戹
眥
蕝
轇
跅
齕
霫
㵎
灺
柮
劎
滻
鷖
崃
錍
憃
騧
鑚
呔
幬
弻
𪢮
繾
轑
荈
Z
馐
髢
籝
憭
磽
圞
艚
芴
叇
趎
淈
Q
鬅
膓
鞗
龎
祋
愓
褉
髲
幠
懍
虣
鄽
犛
頟
䌸
鷯
銍
韁
煟
僩
瀲
𥬠
蚑
訹
篘
甖
嬲
穅
縳
璂
鄃
煠
鷀
蛑
肊
絻
韲
茒
檛
懥
鲥
瑇
懴
舩
鄼
蝃
茺
瑮
囦
纇
蜨
廥
磑
埧
竆
鬌
淰
喣
藨
籒
爿
嚻
崪
铧
罭
鮓
鞿
缡
詿
屝
亰
冔
貜
鸇
疈
隥
纈
漋
薲
輠
孌
蝱
闠
鋈
嶭
儹
敶
涢
歕
磥
瑸
墝
惪
搩
羂
𩙪
颷
硉
浰
垧
齅
嶕
樝
戅
玈
宧
忬
閆
縲
潩
刧
媼
硇
罛
亁
鄤
犗
鞹
贌
鬄
殀
靮
鍱
毿
霿
瀺
讝
亍
鋩
蛬
揎
袨
踸
璺
槷
諕
輊
淶
䓨
濉
褛
褷
枓
偭
駜
氳
罋
鲖
W
嚆
龡
餤
稯
墯
瘃
莋
餕
紩
悳
裎
袢
慬
豮
鎡
沘
鶗
壒
𫛸
鹴
嚞
匚
嫺
鱄
𫚋
脡
棜
罶
瞶
縧
𠇹
楦
芧
俓
玎
喭
懅
蔂
钁
瘏
晸
蠒
凥
𫆏
聻
莝
晅
脢
嵳
卼
蟉
箆
罃
葍
冘
悾
兟
滀
菻
毚
䲡
丌
珓
滮
涷
蕢
〡
髳
戗
窽
癹
蒩
刵
轔
忺
翏
𪾢
瑫
絏
晫
胗
琕
謖
欂
嬙
睍
匵
瘉
𫛛
蔆
羾
𫓪
鈆
鳷
賅
𫠆
頍
剚
肵
杝
櫆
玗
裲
堮
鲒
尭
訔
儈
帊
梈
滆
渢
鼕
垝
跲
梐
騤
曏
斕
靉
檉
䓖
玨
褙
舝
韘
馹
紥
覜
痆
嗈
拕
癩
闩
尗
墄
梴
鵕
昈
鏄
戔
髆
辁
饙
啍
硠
晣
踅
蒢
瀡
綌
幦
餂
虨
脀
屴
箵
厍
玡
岠
鸒
颒
葹
澓
讁
岈
酘
鱐
齏
軔
薍
蜯
蛲
颭
歾
褱
瀌
閿
鋮
伣
儤
葙
韉
淲
X
䘮
皲
鄅
慞
惵
雺
齷
瓻
碕
乣
嚘
痗
𪴙
圛
飣
哳
刌
欑
溎
贐
煃
嘷
喒
琿
臙
荓
樕
氎
𬳿
駼
僽
楖
榰
碪
冁
椇
鏌
貣
掦
浤
㫄
覉
𫔍
藭
攧
㝛
帗
讇
諝
艑
鐇
簵
蟏
莵
劌
镔
絣
鳸
駔
赬
遟
诼
瑺
镘
讻
抝
畷
㫤
侫
堈
钘
挦
疭
櫨
昰
曚
㶁
衈
鰌
誶
隖
鑨
肭
晹
騊
𫘦
蕕
刜
閠
Y
戉
侲
痎
嚧
𠰷
袀
諆
痌
堁
颸
壷
冂
曮
鄶
𢽾
斅
儱
椉
鏹
噰
嗉
蔾
畈
儃
帋
葘
肬
靃
痓
鱍
剺
嫮
镴
挃
黁
鮎
𫍲
蓷
謏
匋
匼
蝍
𦈏
焌
蓘
緍
笲
媭
蚴
葰
牱
毦
弸
榧
捴
鄹
䙝
㥪
僛
郚
卝
郍
蔇
诌
腒
觭
葴
罦
侻
姟
堌
澦
U
枑
萐
蟣
啅
焠
鱻
絖
峿
謼
𪻺
顕
鲽
璝
埚
艄
胹
玅
掫
糚
縆
斈
玱
绺
㴶
瑔
唘
孶
氶
頄
巙
櫑
毱
覡
朢
礚
裰
慺
蚧
椸
婞
蹡
犮
旹
㑺
蒓
鶬
誖
𬬩
䍐
齠
拲
翯
孼
鶋
艌
螓
穪
鳦
釴
奰
氿
禂
尃
𫄷
餈
繶
坿
鳟
俴
髧
衋
骴
鲿
笵
衕
庪
禚
醸
驔
鲮
蔞
𬤝
鑅
礜
譓
玹
洏
抺
镏
𫄬
怤
緤
伹
鋝
媻
撢
暦
笊
泭
鑁
襫
儥
絿
掼
訒
轜
奓
栰
彔
擻
偝
詺
癉
錾
貆
㶏
燂
烋
𬭤
幖
霦
猲
貐
辌
杶
餱
蓥
鼀
鄡
鍭
谹
𫌨
獃
蝡
羜
勹
楘
趠
锳
祴
鬋
骩
揕
篹
巏
丏
烕
肈
菪
碜
薧
覼
艅
蘺
闒
鎁
耴
韍
剄
穊
褏
蹍
唪
岝
旞
𫓩
陼
淢
薀
嘑
鍠
崷
莬
槠
藔
蒗
𬭼
簙
黓
璸
遬
瑉
訽
鐩
釱
靬
椐
𬭸
銚
橧
骦
鏦
蟭
蹜
䚟
扅
鏻
氄
嫕
鸕
柹
襶
毣
骒
騅
仌
朾
蠵
泑
馵
堽
犉
嚄
𥮾
篸
埈
虍
馽
菂
樏
觵
扊
摝
桤
夆
躩
蒴
鵽
艧
帬
侹
囵
侜
𩭹
哱
鴇
觩
暅
僔
榎
躚
駈
簭
冞
眛
賍
鬖
穨
鶺
圁
谼
鸹
裩
峝
琠
鵄
蘢
萟
簰
緉
腷
垔
儜
涫
盉
褦
敓
𫚈
噦
鼜
銙
僄
鱮
膟
橒
胲
吪
佋
屭
穮
鎋
弣
輧
𫞩
璊
睘
駏
騘
蓲
蝓
梔
鬙
㽦
閷
倳
肰
曅
勮
扜
鍑
杗
甁
湅
鳔
椷
䴥
𫍙
齩
牼
𫜪
凃
緎
俙
滽
躠
蘪
陑
砫
訑
儓
斒
袌
薓
鎩
淏
踡
匧
䍧
詗
鼁
鲦
噆
耡
緄
缻
絍
𫟃
愳
麚
甀
弮
匶
墖
獫
幎
漰
朼
翂
獝
姢
韗
亯
鬈
韮
摎
塉
藇
惷
鳆
䴔
鍚
夌
蟛
掜
鞈
嘽
跐
湇
燖
𬊈
瘛
瘣
螉
猳
紽
磉
禃
辥
鞻
碶
嚲
饁
铘
沗
腶
𬶍
罒
筅
戭
瓫
𫐘
鮀
璙
蝯
轗
粔
匳
籊
浿
𬇙
寱
癊
啯
圂
欱
嚌
輂
碯
楢
椗
褌
蹛
𫄴
牏
篳
繂
譣
𫓶
樷
緐
鋗
荍
鷕
槜
尞
毸
硌
笕
笯
淜
驖
溔
蝑
蓞
礓
棪
祹
畣
榝
𬊤
寉
乇
疁
罫
髁
缿
燀
胕
畼
軃
𪽈
`
茙
窫
攓
咡
霮
賷
趲
㢮
焭
勱
捊
嗁
犠
鉼
喦
隒
勩
噇
蘤
穈
腘
䗖
褠
琹
穋
礞
旽
砅
稙
渻
魎
𫛪
鷮
铻
溓
鴽
癈
迋
辤
揥
躕
𩙥
颰
鑷
庬
彟
蕐
筞
楧
埘
陧
炌
鑢
硩
椮
幇
癿
熿
枃
湞
輵
唗
毾
艣
𫇛
蟨
螿
鹻
甋
毰
弰
𥆧
睊
饐
勌
黶
瞤
鞙
㖸
冖
軶
墢
邿
冋
㸃
厞
鄑
駬
鰐
嚈
蹵
𦰏
氀
蓧
鵁
芉
䖟
泃
韀
穬
佁
㦷
胊
𨱔
郙
鐏
阹
遌
瓨
昷
轪
悺
𫉄
摡
襻
抂
藷
鳲
呙
瞵
鳙
朄
潝
竫
旝
鹎
霝
藘
蕳
𫈉
鷞
鸴
梡
袯
挶
騢
頀
禓
囁
礨
檆
觡
祻
龏
轒
佌
𪪞
𫄳
嶐
檡
穧
狉
瞫
肎
廧
縰
餻
鲞
蒧
橿
撦
囋
畒
薠
臌
緺
瘇
眕
胻
釪
弶
膍
腄
曌
墍
覸
詄
鶖
髎
菭
騣
歂
噞
𪡋
䴙
忷
稭
覰
僿
驌
眤
𢙏
赕
愻
迒
錧
禵
耧
煗
黤
琡
恌
諓
坋
𬣡
䴖
芚
袓
蠚
歰
𫄛
纼
哤
幗
蓻
紟
晈
嫳
庛
螮
嶴
簹
嚱
縕
弅
㳂
軥
枧
觷
鱏
黪
锒
樴
湌
竮
曕
崝
鑕
耈
媫
薋
檩
脁
丂
愨
罼
𡒄
鼄
慅
礌
朣
褡
圑
毼
懮
鈒
粺
娖
逥
聀
偟
瘂
憘
薗
趐
銎
谝
矝
堄
綅
惏
扤
肂
悷
衵
隺
罿
抇
麖
箯
謭
祤
㹠
莤
羭
凴
𪾸
謜
侅
袾
矉
訌
繰
豷
𫎆
贔
㥄
栞
豵
涍
嬃
仚
鞟
侐
掍
𬀪
跰
嵞
塠
姘
𬙋
晛
甝
秺
滠
纕
鷥
荗
梩
鵂
鞸
痀
刾
縐
顖
庌
迾
欎
儧
綩
媱
碨
騠
椌
㚟
𫘨
珖
豜
壃
㴱
衜
幭
炱
厹
凘
汏
黕
誵
灅
茟
剬
簺
嶝
鯫
忩
懡
篿
兦
杬
陾
㝠
侀
桹
锨
繦
羺
蘉
𫗥
蘀
醷
鈸
桺
犵
墌
暋
腢
撟
鶤
尟
礶
鎪
胈
㲉
㴋
痃
頬
𫐓
𫔔
鑴
閜
喿
嶁
鑮
渒
髾
醝
鶄
杮
輮
濔
藾
漴
髺
櫄
餫
撘
甈
襛
剙
畐
潗
棙
虸
庤
吚
骟
潠
凷
抍
絭
𥬞
鍬
籋
哴
壈
儌
傋
犲
鹒
嚗
膇
旤
曨
孅
蠰
縒
偯
苨
嘼
襭
戠
繣
嵁
潚
墺
瘨
暜
䭾
朁
篐
烓
凾
𫉁
嫏
渳
夊
獦
鞂
窐
黦
薆
揫
擉
譸
镦
梿
鴝
𪧘
寠
驘
仂
饦
瀸
狢
𢬍
磿
訧
獳
衊
擫
頩
毺
昄
膮
棷
𣗊
詻
鮐
樠
懘
喨
尩
裧
嶫
痚
蠜
鄨
䂬
貈
葇
捥
琄
鶢
砠
倛
戁
䍠
鄷
殗
咃
荁
緵
韺
檍
瑝
譆
緂
啑
屰
簄
艍
蓚
篅
埇
卪
瓀
䏶
蹹
矴
檖
墱
崌
歅
鷸
歫
瞖
墆
顑
嘂
輁
鄾
醰
禝
鞳
鈌
綪
瀜
蚄
𬘬
螙
𫚢
鰋
醄
碞
蔈
攡
巟
磜
鬽
旓
齚
䏰
亖
橜
鵪
斶
睃
蛚
撋
鄬
臐
禟
霳
抴
鴳
𫛩
臽
𢙐
邍
篛
憹
閌
𫐕
轊
囕
毨
幐
旊
椵
唈
垌
倰
悈
剭
顈
謻
婘
瑘
旙
鳐
圅
盋
緆
秇
蹮
矹
拑
髌
坩
笇
丣
艖
臁
癕
窸
泙
娬
伈
皀
洤
埻
畾
堎
掁
璬
獧
獶
汃
訬
趿
鳀
枮
裌
郱
汯
潎
厈
騀
睱
竛
暀
㬥
奯
裻
澴
鶼
籺
旳
夂
頯
峱
鳱
蓫
貒
繯
膷
蠮
韅
鵀
墪
䜌
伭
韄
橤
扠
炧
䍦
觹
朙
鬩
蚹
澭
滶
覌
鋄
郲
梹
鲕
槮
蟧
嶟
搧
澚
戄
垾
㪍
蕑
汦
愖
萭
樲
鸼
餖
訦
湥
唣
瀫
蠐
侉
䣊
輼
稸
鲻
𬸘
臰
抏
鸃
鄋
鶠
曓
湉
艭
拠
䢵
硋
蟢
帉
髿
堩
刉
莚
郰
葠
穾
镟
岯
虋
鮚
簔
丄
跀
䅉
鶹
遻
㱕
抌
綳
嚾
塴
𣐕
詾
粞
桱
俔
蠯
駾
脃
埰
擪
峗
楄
莙
瘭
栿
㟧
塪
崶
岕
剠
鸊
𦈌
綀
諢
劙
醭
蠉
皵
旿
誃
梂
蔪
坈
醥
苪
䂮
暏
菫
爞
呺
熢
慉
魖
窵
叜
祍
焬
燫
豖
絚
稆
𫍻
玞
嶅
厷
紝
囮
鱖
蚉
硪
庒
锬
怲
豦
藑
𫄫
彠
啽
壐
曒
懬
墡
綟
櫰
鵓
欀
韤
鰅
臕
輢
𫐎
偊
嶞
囈
浛
絝
郉
𣲘
犦
謞
梲
珷
粊
蛏
抎
屇
鸐
驆
燇
撆
疪
廍
㝵
鵹
咠
坒
潕
㞕
蚘
靽
㬇
伇
鮧
㛰
忕
鳻
媠
黳
躶
紑
𬳽
殹
鉟
欞
枬
顨
菝
芁
椤
駪
馛
蘜
椳
僈
錔
鞀
譾
楀
瞚
躒
鲀
灮
甹
戥
夅
廮
唲
轖
檦
鵴
駣
黐
猡
䪥
樔
䗫
轥
猧
蟁
溁
尰
簬
𫑘
鄟
跦
靿
悗
粖
鷫
疌
籑
顉
嬭
輥
璛
阞
蚠
溳
軵
苙
飊
𫖃
鮦
蹎
滳
倈
鐬
靧
锞
嫽
噳
碡
鋡
牉
睅
煁
癙
夋
疻
啎
鉆
懕
觺
鴠
艓
柣
腽
髄
螖
寑
菥
贙
鉾
𫓴
蟟
㬎
艼
䔩
䜱
鲩
筀
膖
撠
㡿
睩
祡
呣
鞁
歺
嬝
孴
驉
俍
戃
佴
袡
剳
慹
黂
叀
胉
瀙
梮
橞
巌
鬑
㒟
杘
髼
囯
臤
輣
錣
揳
逎
𦝼
熥
涗
吰
蠼
歭
烰
蜲
鲡
瓝
膢
弜
檏
桋
呒
緪
蒪
淊
釅
狫
䜪
茩
蟥
鲗
㔻
㖞
謑
懱
洣
諈
陗
凵
腜
怓
鼢
崍
攉
簎
栧
忲
迃
濋
菙
蠪
菣
軧
蔦
餟
虘
蒦
暒
桫
扂
輲
矌
櫎
戼
鮆
𫚖
吅
樻
妷
枼
姡
椆
厜
梬
飀
膱
漵
諵
竉
帤
煓
硾
膬
𫛤
鴐
寋
蹝
鏸
貛
瀷
疕
椴
鵔
奊
覂
茞
稏
煻
稉
趹
㙔
蜽
趡
虆
櫐
朡
轛
耩
肣
撏
鴡
郋
餲
鸖
蜧
腵
斖
瞂
䵸
猞
嚂
埯
櫋
撱
鯸
飤
䑸
䑛
僢
䆃
僸
徦
掤
磶
磓
荭
饛
鬿
愮
臷
軆
茮
馊
嬥
湡
衱
餝
㬋
摑
嗺
韂
枤
鬮
稈
檽
尓
昚
韇
轙
喞
廔
翜
鼊
㫋
龞
澷
鈃
荎
暤
坭
鷴
旵
煿
醼
芔
鉸
葓
蘙
魌
俈
濄
㳡
栵
陻
牚
埌
傫
顋
缷
搋
挋
捒
硿
痳
牜
瑷
峛
丩
蛘
椫
韽
蟈
槵
鴶
嚵
茠
坶
躰
鈹
㤀
𢫬
嫭
婳
鏬
㭊
膄
臄
摋
撎
䳺
枙
崺
𪢠
囒
椔
陥
𬳵
堥
啙
㫃
萉
駓
讔
庲
荬
箅
㦤
嫈
瀄
擖
媌
秝
箛
畡
垡
狘
袟
䠞
俁
薻
窹
礉
慂
矅
硊
眬
繀
浕
貮
柧
惉
蜙
漎
峚
剨
猇
鯿
褋
坁
馎
瀠
羱
讘
芀
豰
辿
躨
𬬸
缹
掮
臜
嗼
钐
𬴃
鉥
狓
檨
嵛
黚
菿
眜
𥐻
猁
箖
褆
丮
魗
騞
鍈
鄎
笤
淓
鏕
醹
蘹
碙
嚦
橪
䨴
癍
弌
䀌
攛
挌
瓬
咶
懫
馡
蹅
縜
呞
珹
叕
塅
頮
劋
姼
豓
攕
暟
諔
𫛣
鴥
熤
楎
硨
鈜
凓
灨
柍
觟
蚻
瓆
鬺
裥
齵
劦
岞
謵
钫
簻
垴
垿
竃
摏
蘡
堛
槢
欛
詅
鐐
咅
揬
讕
鳺
芺
㬠
訩
黭
幧
蘦
稇
觼
勼
彣
猻
琸
犎
𫜬
跜
捼
燅
芐
炆
碝
齘
𬹼
頣
齰
緧
蟮
藙
厀
榣
唝
縪
伅
鸘
襤
捖
仉
鷾
庮
舑
磢
嶍
絼
亼
閇
騵
攦
潀
𫘪
嘓
葼
擸
袲
熅
鼮
蚼
矕
褅
艻
㢸
殈
譞
𫍽
伱
嵷
嫥
槄
䟦
篣
靘
澑
詑
𫍡
鉌
傰
婓
稛
莶
傿
搣
棽
漊
栔
狋
痯
肙
笰
亐
鄐
坉
渹
礛
馝
膁
淐
眅
蘴
䗍
揿
鄸
抮
俋
銟
埊
耊
襺
垐
澯
堣
謿
礠
捘
僪
艐
𫛞
騒
鴃
媦
椄
絯
鏂
胘
牥
梫
蘠
涽
缏
襂
睔
匑
櫱
魆
谾
襥
嶡
乚
踼
靫
岪
烔
㯶
猵
瞯
寪
蒀
鲚
峞
藚
瑆
啀
鏵
蝾
眽
矸
犿
燏
䰞
赮
幈
昡
孏
䡾
葂
尀
昒
蠎
礭
馓
礰
㟭
馣
糂
垺
眔
蝄
灎
臶
煣
墋
繮
靆
摲
橓
昤
庱
䴊
璱
冃
澟
嘙
螇
籈
甂
抧
蠩
姽
媯
槾
恑
蝚
儽
𫑡
蜫
鄳
黅
䏝
蔤
悑
㝱
𨱇
輇
㪺
𫍚
訞
銶
揗
瘲
熭
𫗣
嚜
帣
砯
蕀
𫍣
獂
豅
詷
奝
裠
炟
瘯
飶
殟
鰣
釚
巀
𫟲
塐
滭
蠸
葌
稒
䶮
䄍
獑
洢
鄦
跇
芿
蝹
忨
煼
曣
櫌
鮥
肶
緁
鶃
閺
鄍
檋
鹝
馲
娿
餹
㲪
鋊
𫔇
㺄
庣
齖
桵
梀
闛
陭
鎞
訰
絸
謰
蟷
鄈
扡
嫒
𪲔
𫌇
冄
襵
欐
袘
䉤
寁
恔
嗞
蠺
㧖
豽
玿
醧
蝭
塓
玶
儴
侸
餁
驈
娗
搕
朸
鳇
槹
傁
霩
蜹
屚
欶
獿
敂
𦼖
檾
㖫
轚
佸
橥
渀
怭
膞
丳
巎
貭
倗
躗
雈
𫄶
鐕
逿
崮
翐
臇
漥
覻
鷽
韱
攃
檞
鑞
胮
懁
龑
欥
鼩
礥
漅
䘳
伲
穱
鏓
繈
朻
襋
踒
簥
麎
堘
鞥
疧
脧
岋
裭
偼
嵿
胵
桚
檼
訉
惌
筡
隓
樘
瀯
焻
蓛
賎
茻
朹
㑩
巹
酕
聓
祑
㠓
奣
獢
諑
䂓
餴
瓽
晥
㴩
厺
磳
翨
縏
褸
鎒
洓
蛜
厙
糱
棆
豏
狍
𬭁
丒
沶
斞
鉧
箈
霢
鏝
濚
膎
楱
鸀
篃
琈
栫
攎
蜄
芓
瑲
㲈
橊
庼
𨱅
楟
糦
髐
棸
辬
軑
螝
巜
詨
敜
蜰
樀
鞛
葐
嬺
呅
蘐
鞄
秊
嶀
䛒
䫉
甤
歍
撗
詀
儸
幍
𧮪
䖵
覶
迵
抅
侇
蚗
撁
鵊
鱧
𫛥
𫋇
縭
婐
蟂
輘
夒
痑
箊
鼘
峍
怚
㝅
灈
鷤
𫛴
㮮
妸
屟
諰
𫍰
鸸
劗
枍
蠨
氆
爯
僡
啿
跙
誧
皯
膫
苃
胂
蠥
籔
媍
㕔
㑥
濌
淔
縌
喌
傛
鋚
棿
轞
鉎
𫗞
酓
螔
蝜
軎
矔
饆
屖
鉁
忔
𣚚
欘
輬
熞
籸
宎
鹨
飦
謪
翖
幮
𪹳
爥
蹖
汮
燡
賏
翶
魫
嵰
昖
摙
鍖
昑
埛
𨱑
騬
鞺
壴
腞
莍
緰
𦈕
狆
溞
笘
豲
莜
鐄
鷢
嘄
爢
㸌
懠
梪
葈
暬
狊
髥
糩
襡
𫶇
頇
饇
掿
圽
嵽
搹
俻
顜
吺
蔯
涐
𫈟
貃
鎦
愃
謈
趪
桊
澞
羓
艿
羍
泿
囅
贗
懻
浠
甐
郠
棥
稕
爀
怐
僤
𫢸
簩
瑵
猭
饡
鬊
篺
墫
尐
脄
䃺
㻅
阺
𫘛
馯
畽
矲
囇
愯
簖
麅
涆
嵏
䳒
𬬱
栐
盰
礩
愸
㜸
𫖔
枎
脟
璯
釿
縩
脝
羛
錕
臩
鱎
㝏
鎣
韛
鈚
鼲
鄵
篰
蕍
𫜰
齾
緕
霛
樐
砟
慽
阰
蒳
侭
畍
碥
叒
漒
磩
磹
衠
湴
䩭
鞃
𫛢
苺
鸋
飑
簝
鮹
蝪
玓
橭
逤
裶
隑
霐
憛
𬮿
庨
燸
偢
暻
鰿
滺
軱
竂
凔
殠
垽
枊
坴
豩
劀
寽
楰
礅
辴
瑿
雗
忓
隝
憓
櫕
楥
蛷
酨
蛁
珸
䱜
敄
傱
崡
髵
湱
䃭
硷
獌
儭
轐
榠
毈
偄
暆
𠋆
𫐗
㨗
蝂
蛞
蝛
琀
蔏
棳
墣
澬
𫞚
懜
皫
䐑
狚
懭
匰
戤
徥
痬
僒
歬
醡
䳏
䱇
𢀖
巠
襳
齶
烻
瀴
虇
蟦
犕
籨
卾
莕
蟅
𨱓
𫐆
坺
馞
轣
蒏
贒
囙
骲
垻
鐎
砩
騆
㕙
魾
敹
睗
欉
哻
匴
跔
蚈
蘬
䴵
晠
拫
睋
齆
𫟡
渶
蓌
秶
誴
籰
廎
矐
昦
䦧
鄛
攊
麢
揱
馚
怄
㓜
嫰
𫐏
櫹
輖
魨
袺
顢
譒
枟
蚔
哫
藄
齲
攰
丬
榯
魮
糳
獀
鍉
昛
藞
𫔂
趮
𪡏
嗹
㹀
佅
薕
袼
爊
鱟
踤
聝
塺
䕃
㞦
襼
浢
浭
敡
孠
㚖
鄪
齹
鋙
攮
鈷
罤
篽
愭
盫
肕
濅
弝
狟
槬
漐
攩
偩
齄
䆗
姺
飌
鋘
亠
襧
惢
憿
駥
趻
夝
毴
蓩
荝
桲
軘
轃
裷
雔
煔
輐
榥
瑬
郔
褢
駽
貀
愗
𬒈
沺
礐
齝
盇
榿
驦
偞
韏
鰈
錟
渜
邧
侚
菎
醟
腝
獖
髇
姶
瘌
槺
涏
栯
竾
翭
禈
䣛
罜
迣
鶝
殥
鉹
瞡
桭
懹
㐆
豶
鈵
跴
厱
袑
茳
骿
籣
繟
𦈎
憼
皸
玒
竘
檑
鴚
懰
郼
摦
䩕
墈
潒
倝
霱
鳠
婾
麷
㐫
𫜑
毇
慔
趖
槙
妐
胅
稘
瓟
𩽼
嘊
骱
齱
晭
汒
鐀
嶬
撣
婗
蕫
皽
綼
鯶
譡
酦
甊
螌
豀
狑
蛦
尌
鍐
襱
潓
蚷
䐗
𪾔
艒
盨
塳
跈
誎
饀
傝
藦
宍
䲔
鋕
魭
咇
聟
鴸
垼
晲
鞒
榞
羒
趢
榬
菢
覀
貟
磌
彨
鶾
傂
碫
蹞
抯
嵹
蔉
嵺
堳
藃
卂
粇
僷
榹
䜭
欙
虭
惀
櫈
茦
疷
蕂
蛖
𫗠
禥
餦
廰
瞙
攂
碆
騍
倎
蘥
崋
欋
榍
韸
嘕
薸
艛
䠒
餰
葪
葄
橝
晱
嵑
貕
褺
胐
麊
撡
誙
𪻐
摃
乹
讄
𬂩
梜
譀
摫
顩
衃
蟞
猚
嶃
郹
挩
胑
瑽
珇
誆
檴
憣
輆
毄
娧
謍
姎
鬉
撽
嵠
鋣
坜
軦
揞
陖
禒
嫇
衯
澋
䖏
摣
篼
髕
笐
冎
崥
挱
邆
䔧
䵷
𫟵
俀
哰
𫋻
鏚
桒
㸦
恮
櫾
磏
襘
詃
虦
悇
繠
阢
槫
𣏢
犅
僓
愡
𫎪
䞋
禸
狿
葜
蟚
稧
辧
㭎
柀
㥲
偆
鈗
飋
谸
垱
𫗋
劮
鴘
稄
涾
𫗮
唌
砎
骾
癠
臒
餭
捾
抪
薎
崯
氃
𫰛
娙
觓
蛓
㭒
丵
𫁂
厽
罬
檷
糹
䲣
蜪
㬊
夨
刏
匔
鬤
嫢
柃
鬀
䆉
蜦
鞼
僆
殜
釬
罠
唿
鵅
紖
瞹
烶
曭
嵍
誗
𪾦
煏
葖
邔
蘷
䏿
𫅗
觗
澅
𣶩
耾
㠗
鸅
窼
喢
䥫
妉
譶
挴
眣
竀
䱉
羵
蔊
矑
鳿
颽
㐱
湁
蟳
𫊻
菵
鼚
暭
詉
誻
帒
岹
爁
儶
䋫
墕
崏
穯
桻
酟
妠
肐
襏
嗿
袊
夰
狾
罧
鯋
哅
㡛
嫛
泶
虰
㛹
㮏
璏
晄
娸
獹
昢
𫘟
茖
鞎
郎
矺
黵
憞
垗
駊
臋
錪
鏇
瀎
蹪
庉
飃
㐌
墎
餥
㣲
粰
僙
揟
籦
洍
鏠
勴
鳎
鴹
觻
瘜
氇
蚛
噯
楃
蕷
淴
萠
郥
䧟
衻
濎
攠
鄁
樉
榅
袙
鼅
狔
翆
乀
杍
钶
黰
耬
蜳
䙰
䍡
緾
塒
隿
龤
俇
癶
靻
礀
鉒
臅
軜
鑯
𫐇
鋃
笓
蔎
櫧
驑
踁
胣
蚢
𫠜
跓
戫
妎
鞢
瑍
苳
齯
慗
恀
絟
珕
蒚
棡
嚃
呭
橾
蜤
隁
𫭟
虴
虁
㗖
烇
䗇
蓯
儚
糔
趗
塸
炣
諞
𫓹
灜
錤
氋
曍
傯
輷
覕
謣
帴
壏
𫐒
倯
鳛
捀
匌
蕯
閗
詥
爂
喍
撜
𫔯
莇
䜿
㙮
䙀
虷
𨰿
妢
飍
襹
釳
𫌪
伀
譩
偡
朥
覛
𦛨
搚
餑
爔
鴪
岺
钭
㷀
羫
媆
籚
濝
巤
艗
軯
熀
䯢
婥
騺
黬
怘
㧞
憰
牤
雽
邟
閞
鍦
𫔰
媐
瘽
癀
𪳍
匸
欇
氉
蟓
磤
熁
欨
蟃
鯪
儍
騱
蠠
踨
铪
𫘬
覤
蛥
繲
瑹
羠
涶
攗
茤
榤
蚥
顄
聸
摚
剮
䴗
貇
萴
氽
夑
齃
㽵
刴
霚
𪸕
豤
熂
殸
謋
軬
𫐊
綗
辡
琟
𨱄
譱
瑎
腍
袥
髬
庂
䋈
廇
薐
耞
蘁
甏
稰
杴
鈯
軝
𬨂
虤
諅
彲
絘
娽
𫋷
芵
顣
竷
𫖹
襗
鵌
鷔
𪉑
婤
㝡
〦
駍
飥
趚
啝
毷
箳
膲
鴰
𫚌
魦
﨣
孓
挕
粆
㳅
銒
隉
镅
溰
眒
峐
沠
棌
鶿
鼵
㨖
瓐
堍
頨
捬
𫍬
黺
斍
鷳
堝
誷
巆
躣
䥽
廗
檕
醙
鱦
澺
鋬
夃
蕹
愰
䝟
璖
寎
脕
鬠
漮
拪
妭
蠈
徔
𫘽
槸
騯
陓
怢
湠
衟
铒
茛
裞
硵
彂
覗
萲
裣
躙
崵
鷻
羬
魼
鼨
堖
膉
镋
倠
貱
姅
蘽
鴾
爗
贉
壂
咓
濴
𫎫
囐
獜
椈
䔿
矙
邥
蕛
摷
蛒
戧
瘑
狧
噽
敿
霒
丯
沵
杫
魠
帩
俉
萷
釰
滘
栜
㢧
矒
篖
骉
礔
廅
癏
嵆
痝
㡓
㨎
骻
䣙
斔
闅
硍
鰝
嵃
撍
暲
㖟
瓵
磛
蛈
悐
螴
抾
駷
躳
眲
悹
鵯
觢
埱
婑
螋
䇐
嗍
㷭
㩁
磗
昋
岜
啘
睮
魶
譫
鼦
蓤
佒
㫚
螰
茪
睄
偦
㸐
峉
啒
鬾
耵
藒
聍
堭
殬
笢
菐
廜
锠
䱷
唽
熻
筧
甶
襐
㦬
葧
㽅
翲
䧿
焂
莔
㔶
㱙
芛
虥
霠
禷
踄
腇
媅
黸
矖
斪
瓡
薞
嵣
䚢
鎫
恈
聏
漝
緃
牄
緭
砵
屵
㤗
鐖
䣜
殕
篻
釽
峁
緥
㘰
嶊
䵼
罈
繵
滰
柫
铋
拺
杸
蕸
沷
椯
瀐
㶿
椊
祩
㘭
蠊
㟥
𡶴
鱨
詍
嵼
靲
胇
憁
瀔
㠠
瞏
貁
鐉
𣗋
譻
剫
扙
儠
鍫
鈏
唊
聡
㜪
忯
潐
攱
熜
龥
藡
腃
頦
戙
䩄
浘
濦
䦱
幝
欓
嗋
獡
㤅
逪
㴑
㵯
𪩷
㠑
鎜
㝮
㳄
蔮
顤
鏨
洈
虈
狪
嘁
蘱
糉
舼
嵤
焃
鳪
㧙
塯
蹱
鶅
喛
䢃
疺
䍀
竸
泧
衚
銋
轀
灄
谻
䑓
㩻
褍
䎖
焲
䕩
婩
狤
緷
𦈉
躆
㡭
蔍
䗶
畕
憻
妦
鱞
礹
萈
洔
瓓
繿
嶚
𫐑
僜
輨
籢
鶪
瑃
嶜
褣
庯
勥
馤
鮝
蘃
秄
齌
峃
穞
誂
苘
蛅
𫍥
鼸
嫷
齤
湒
漹
揝
䋲
炲
㖃
蠝
磣
扚
鑌
櫼
㓝
慸
莣
瑈
陏
藫
峬
㩦
撖
樆
蛢
㢡
俲
馰
櫡
幏
䬃
眳
皬
熉
𫟄
蝒
幩
𤈶
綋
𪩸
鸓
渽
埡
㓂
鶊
拸
亝
倴
椏
喴
薥
锃
鋂
灴
瘻
睕
嶩
輚
鶞
嶆
崫
鴺
徛
叴
蘵
偨
荾
垎
坅
懙
寙
怮
枖
壥
㧰
挜
僯
矤
曎
𫓱
仾
鐈
鱅
梣
盷
鵗
㞢
㚇
㽕
浉
䲹
剅
㥶
偒
糨
豑
墧
魒
蹸
壔
媖
㲄
穛
瀿
㘁
懩
倿
娎
稬
疀
榗
敤
䊸
蚚
咼
圝
䵑
擽
捈
縺
𦈐
羉
蘝
顐
楺
俷
幑
蝳
抲
榶
籭
舨
鬇
釄
侌
矠
薃
埨
鬝
漺
𫭢
奞
陫
砱
㟏
㯕
嵵
鱒
嗗
葟
睼
㕞
齻
笿
祾
赨
筕
鏺
㥏
禗
鋀
疛
涹
俆
圡
㭉
帞
涳
奼
鱁
婟
鵋
駻
麮
𫘣
迊
瀖
𫗰
墽
鑋
鯹
碬
漤
㟪
㨿
镼
橃
玝
䤨
弤
犓
罺
抦
䴘
䈥
蕮
㛀
彃
莟
𪪼
蘯
㐭
礝
峷
篂
腲
𣎑
麆
矂
㡩
㿇
臗
䌛
䭔
俿
䄠
羋
㛐
㬚
榸
眑
侊
塕
庢
虪
搫
偀
沰
耱
鏳
蒮
圀
㓨
鑈
錭
矘
糭
㒼
㓗
灟
磪
峜
鴢
婏
庽
㵋
僁
鷑
踥
橁
儑
䤈
䖝
嵦
㡊
廴
焆
貋
憪
㕒
曪
塥
冮
䍥
梘
惼
扸
櫍
𫚉
昲
儩
髊
朖
魟
襾
斉
豣
𬃊
䶵
铊
㯺
璑
亅
棔
秈
竻
𫍴
瀀
謱
玪
秷
敱
讆
桰
鲉
孊
𫓽
錝
裺
嬎
璒
蕓
搌
雥
燍
湀
樿
㠱
跒
跶
艁
鉽
𫟸
蓈
跁
譈
遆
媰
佊
嗻
豯
㞐
嫧
䘿
㭿
彶
黲
趓
掝
㵒
窢
盠
镤
躟
譝
傹
炗
鐓
䠶
懞
䤬
蒵
蒤
瓅
𬍛
唭
愵
絑
㺒
钀
閍
擏
鞇
袧
𨸂
鸁
舕
坽
旈
㬺
鮛
獉
巸
鰒
鵃
颲
㽘
毶
腏
棑
蟡
玤
聑
㕣
誩
詝
屾
𬣞
璗
鲳
𬍡
騲
趒
歋
摓
觤
硞
怞
㲻
剻
頿
䵃
酀
岉
鶆
鄇
唴
匉
箌
磍
蝖
逬
螷
閂
䆅
歱
钃
锔
莁
樌
鶷
圇
榽
𪽷
蔱
繴
翪
瀽
戵
砏
䱐
㮆
䬠
嬬
菤
溦
誽
鮞
㯓
愶
㓷
悂
䔖
鏴
崓
鐊
堶
㜮
袹
岥
䵒
痻
賝
𫎩
䛏
虼
趬
陒
圥
䠊
㮰
崣
繜
滒
橀
荺
輑
粣
蒠
弎
袩
曑
癚
䇂
㷿
𤈷
笁
骽
𬣳
佂
鬡
覭
譺
䐈
蘈
蘌
㶳
恲
瘱
蟩
庰
譹
詪
彋
䪡
𫋌
蟘
楒
牻
媓
獟
𩙫
颾
䡅
㶇
呥
趭
覢
扴
鋺
傈
祒
屓
壜
帓
耹
繍
棝
䆫
厸
㬱
䢋
憜
昐
褗
螹
䐡
鮬
鱴
竧
磘
㩧
緟
腤
𫟆
纋
麔
宭
鵖
浺
毻
秱
帠
䥖
垹
橏
裖
恛
㸅
鈲
䀠
䳇
𨱃
魱
㕑
埢
薱
愇
檵
䰂
疄
熝
鯷
𪲛
㯳
罱
侞
硈
睶
呹
菨
熕
裪
叧
蔖
橆
𫗩
饠
膆
鷘
寴
鉯
䓞
鱘
哹
𩨈
騟
觲
䏌
䑋
荙
莏
膹
蝩
𪱥
軮
柛
弞
懖
犼
姏
氁
腪
𣍯
䉛
獏
𫘥
騉
橕
㵣
跉
箹
稴
嵱
肁
圵
䪐
轱
蛵
藼
熷
軖
魧
箰
櫫
癤
䍿
徲
裢
敀
嘾
觍
㮙
彑
壡
奅
㻞
綹
嚪
窂
謕
趜
趔
逨
惥
騽
摖
𫛵
魪
㱩
嗊
隞
嘳
鶌
馧
𪡞
汓
韰
硱
溹
曃
㸋
恅
磒
㚔
𫛱
轏
嵔
燌
䓗
㮄
鵫
蚭
鼱
巄
嶛
鷉
迡
殙
惈
爤
馪
弴
䵣
鎝
篧
乕
𨱏
颩
瀢
櫏
麧
㡎
愱
㪚
鮂
仛
鞜
蚞
鬔
轈
桾
蛨
緛
碈
浵
緢
楉
攍
朳
黣
忥
簚
曯
袉
幓
矎
翍
跮
蜬
漨
蠽
嶱
鱕
螼
靊
坲
瀱
觛
肧
猣
㾕
圫
誒
㕦
𫗇
嵻
顡
餺
聅
茿
䫻
藸
郺
剶
妟
厬
菋
䌶
㧗
䰟
㵲
榓
㧏
蟙
聤
洦
蟯
櫞
搿
㤿
鶮
叐
䔉
齂
柖
䎗
紭
䟫
虌
掆
顝
㩉
掽
玏
鼳
玔
宔
䉵
哵
襒
箟
斻
卋
蛫
濲
蕇
橺
遾
㧐
湙
嵾
槈
蠌
㥅
譮
盳
銲
蕧
㛤
藶
欈
匘
浧
鬕
䕫
豍
僲
䫏
嶨
窙
獥
厛
翷
骔
蛧
葥
廯
㩲
楈
塄
冹
暛
䴏
陃
鑵
篍
蜵
螄
蛂
㡀
苰
楑
㜑
鎕
曧
咑
䏑
蝁
葮
釥
覵
𫋹
襓
坥
翢
汱
潫
殰
𫓾
㳟
臱
爣
錥
鴜
镺
䢼
䐁
䑳
𪉈
昹
㘈
𫛟
鸗
隇
羢
庈
軞
𤇹
怸
坘
芠
䭫
熚
謅
觰
磄
雿
弡
橉
愲
哃
藊
䁮
橬
冸
矊
䔰
薚
逜
荲
㵐
螲
孋
䊷
祳
滵
瞗
韯
𫍪
鼟
蟌
誋
噥
儅
蚇
铔
䱔
汻
㕓
䡈
嬒
緶
嗕
嚤
碢
篬
訄
鵉
唻
眐
邞
漇
漧
繑
灇
矓
琩
歁
硔
鼞
雃
羴
鳵
梇
昮
鏩
鋜
栚
穭
矆
摕
琘
䄏
㡡
渨
厣
犋
䨥
褀
嬽
灓
㣧
秌
丠
埾
䠥
蕠
㸁
姖
㨫
䙷
犳
鷜
㠀
蕟
釼
螑
苲
䇓
珻
犪
麡
乿
䒀
㬭
蓶
顁
㯉
慯
跿
欏
鶙
榺
籉
渘
蟰
罯
芲
䯰
嬻
鷒
渃
媊
醔
𪥿
訆
窡
瀳
裿
炪
㒸
眧
攑
栺
㒺
𫐙
轠
𫖶
䕸
鋑
顅
澪
倄
晀
黀
姕
儢
𪵑
墇
椝
䜟
洝
䱹
㕮
鲅
毊
䓈
哖
㲿
鰞
龇
鶛
骣
阫
槑
䔲
鯼
嚔
蒘
鶣
㮕
犺
趷
㘅
蔁
鮷
暳
㩃
濜
檊
盓
葒
䳕
歨
搄
嚊
謥
搷
倇
剒
赸
髗
𧏗
蠀
瞾
琌
篗
舽
膌
蔜
㜲
㶑
沋
姌
醕
鞪
彉
愅
厃
顪
䰅
涀
郻
甛
𥎝
骪
碅
汵
珒
䂎
崠
䟎
镾
㝌
鸍
臢
㯹
鯠
檓
猼
恎
狵
榐
賧
蟕
㩳
繤
蛡
嶶
妵
䡄
㢲
䰐
豒
䡴
㘞
奲
钚
蓇
呧
㭰
葀
曋
鶨
𬘯
錂
鞧
侒
鏔
蚦
廀
綧
囆
铇
篎
獽
𨱋
鐧
踑
銗
瞱
綄
𬬿
䣕
𬘫
猈
脮
灦
峧
㽄
鵛
鸙
娕
浽
跠
惂
滜
㬓
㞶
臖
鉊
蚸
覞
鋻
駂
偱
㓟
瑌
瑂
鉿
鵸
湦
抈
斢
巚
䢅
濥
橠
鐂
砐
尣
躤
蛪
瞲
哸
抐
觠
䝞
撧
𪮖
梋
𪷽
崨
螜
雧
筁
䚻
灒
㼾
礊
㴲
楇
螕
譇
𣒌
忀
聧
舚
迿
惾
槦
跾
箷
厗
㼜
蜌
鱭
𣂏
豘
筄
蕗
銔
沝
勊
暪
鯦
䛆
嵥
亄
誸
泏
洇
䳘
恖
㖵
蘞
睴
慒
㺃
蝢
龣
飻
蚏
愺
耝
𪭾
䅺
媔
㐁
唦
鑺
㖿
豼
槏
壧
䈉
䀨
芏
峹
蛗
粈
傶
鵵
齺
䄷
蓗
缐
撊
邌
嶈
㿃
𡺃
䃂
圴
嵭
孍
㒜
糌
鳓
酙
㾖
脺
䆿
䪫
紨
緳
栨
哠
棤
犝
鮿
鉠
㗱
𫚚
䡘
緀
㭙
𫓭
槗
騸
棎
皠
䈞
抭
㺍
𫊮
趌
鴀
粁
蘮
𫛜
蠦
眗
湭
釶
颥
祘
䡊
鳡
㮤
腛
㒵
鍌
鴙
巣
鸉
萰
鄝
廫
鱽
癵
㳿
胦
鏶
仩
錎
猯
䩉
鏒
䲷
𪞝
凙
綡
鑐
咉
𫟅
𪨶
灙
螒
癆
鬦
䖘
䀢
荵
卥
𣺼
輋
霋
瀇
栮
颬
氒
臸
篊
飉
嗀
踛
趆
䚮
碖
鈁
屫
敃
栙
㳠
挓
掻
烒
熑
黫
搈
嚖
𫄡
絧
爴
鰷
浲
揘
憟
拹
菺
曐
蜛
𢙓
㟙
懀
浻
喗
㔸
㜕
㚃
鱳
𨁝
𡏖
蚾
楲
㠋
礋
貏
遳
捇
鈖
䵹
鷛
乁
𫟴
旪
㭬
唢
箂
啌
籗
畗
杚
嘠
䢴
楕
塝
尵
䣄
饊
嶾
顀
𨀁
躘
噑
穖
瀶
鹐
傤
鰩
灢
捪
㩜
鿎
悀
硭
訁
籆
脙
灥
趩
苮
譥
蒥
蚅
烄
譠
綥
彐
鰡
霃
詽
㻬
湕
罎
鐼
㱿
𫔁
齸
菦
乑
烚
婠
𫜮
齴
麙
宲
秥
㨨
䴠
㶣
㒡
銸
㸙
㙻
蓳
瑥
鶏
䌨
䶥
兓
嗙
糪
衭
檈
燆
䐹
礏
翄
敐
䞓
鳭
譪
蕄
垘
蕒
趉
𫎭
霵
䓲
崹
扟
宖
皏
襎
暯
爉
㥽
鰱
鼶
牑
寷
䰄
圿
䩞
蹗
㬪
脠
琾
泎
䂥
㫺
鴱
僟
暙
噡
譄
舓
墭
欚
螱
靾
芞
殔
褮
㺑
鷿
㗉
㵱
侙
諿
躢
㤭
䭈
鲣
䢔
懯
𫂆
㰦
簂
豞
龝
閕
𠯟
㤥
戜
帲
哯
瀤
蜅
醦
鰬
摮
𫓰
瀓
銊
㻋
韑
觙
㧻
嶵
蝐
偠
𫘡
秙
䆳
駫
㼵
䢦
攐
蜟
儎
垙
愋
褹
㤨
嫟
蝆
翋
聉
麠
耫
欭
獋
掭
娒
蒒
犙
踕
㿥
竱
䰍
穤
瘹
篞
孨
𫁟
諽
蓾
貑
輡
㼚
鐷
腚
涺
踾
獱
㪇
蜠
齳
鄿
蓪
捁
䴷
鶀
硰
嘇
崀
駠
䤅
頧
䁝
檙
樤
𣔌
噮
蘛
嘫
蚆
䠧
䤹
䈚
㟁
嶦
豾
䶗
欮
鷱
烑
䶉
㞧
䜋
嫙
𬬭
鴯
錀
惤
樚
醩
暼
鰂
楏
㥯
鯔
栠
苀
䳟
褑
眮
蟝
柺
敊
圚
䶩
槯
諻
䁕
扻
樜
籫
庴
苬
鼆
裗
岦
㠭
謮
萪
縼
鷷
皼
痄
鼝
𫜄
狳
袳
攌
傓
齞
鈊
覒
鳘
㐲
澽
㗋
媥
竤
镩
岓
𫗢
廦
湽
飵
䴰
㘖
謲
嶉
嵖
鈶
㐀
醠
蟴
獓
犘
梌
㱔
傮
噵
鐹
怋
癗
呡
澰
抻
砊
佮
㵳
埦
鍏
灷
㲣
岰
黊
卙
䪹
䨂
䮍
悎
眆
寏
䆮
牮
娋
蒫
勡
憴
疿
黖
㗳
雟
咊
䩦
镧
醱
𥐟
䕬
礒
聣
㖾
哞
惃
湸
垟
揌
澾
㺹
㠁
笧
絤
抷
醘
㝃
騇
鬏
岮
讂
㖒
䵟
恾
鱯
煋
鬜
峳
胬
䝠
洀
㥛
饳
㼐
飠
㗊
驠
铴
䁙
䗃
䶂
糏
䍽
繛
癋
鷅
𫛽
壾
𦍠
噃
皻
㣻
蠷
㮇
苤
𪠸
㟅
忣
篏
馉
礵
魊
㽥
鳒
鵱
蠘
㑇
蟶
炡
毃
晵
砬
郖
䭀
䚡
潖
䎡
隚
𡝠
敁
憡
噷
篵
𨅛
𩠇
䲭
䔏
弲
閛
炵
睳
虉
溻
雓
㬉
衁
芇
髈
𬟁
㨆
嫿
琑
鷼
黱
蔨
駖
鑃
鯇
鶽
棏
榙
屔
䎘
歀
㙪
彸
桍
䋛
橔
釤
㤄
磞
臎
㬜
芅
捿
䒠
翧
硻
蘨
潵
嫶
𫍧
伬
䱥
缂
扗
塛
炓
苵
噈
誺
蝺
硥
脥
𣍰
濿
䕠
㻌
𧑏
蠾
鷧
𪵱
眃
侼
氌
搟
㑲
䃮
𧥄
碄
匇
䙴
卐
䠱
瓳
嘡
侳
櫖
鼣
慲
䴸
䞇
𨱂
鈋
䘒
蔧
䃉
瘆
靭
鴅
斀
埥
莦
燓
鍹
螊
鲌
獙
鋷
𫛝
邭
觪
䎶
㥾
筶
郣
頉
堬
柭
䣱
乛
吣
揰
婻
阧
墤
䐦
馕
誔
隣
䘲
孮
摍
瞴
㧾
𠯠
𬶨
婸
焑
燑
譕
噅
夼
欯
荴
猍
穼
鱀
魿
溾
晽
讉
嶣
峊
沑
曤
䣼
蛃
茡
䝐
㡘
豿
菷
犤
壵
螸
㡉
摼
吲
𫞗
㟽
鴩
烆
䍷
㜝
麜
䐶
㲝
渱
籪
潣
薽
盢
匒
𫛚
䵎
蠑
鳽
墥
嫞
衸
咜
䙌
埪
祰
溭
莃
踂
䫇
䒼
珬
朚
㥦
䖆
䓑
躈
樶
藣
搑
渿
䀎
簶
檒
㱃
槉
蔠
貾
頪
茥
煝
偋
爮
蒬
㨱
藲
魵
柦
皊
曟
𫚍
犩
朊
豄
鲝
肳
𢓜
弚
㕯
㩗
揨
䁥
棯
艕
汫
鷏
袸
菳
舦
齀
繗
鋧
㜷
蝬
㠾
䩙
䨘
譢
罞
䕭
䲛
睯
䖀
劅
昣
堗
鍴
潡
凅
豃
袇
斳
㓃
謢
稫
祙
嚍
䃜
寣
嵉
嵙
堢
捵
㑳
佫
濭
㟝
澻
贆
趞
藖
尥
槴
𫚣
鍙
樒
䓁
駚
蟿
驙
㕘
鯾
𩧫
𫘰
喥
钋
潪
趀
蜐
䬯
䨲
鍨
夡
㚲
𫚦
䢿
蜸
蔩
埅
㑞
韒
鰫
萮
硚
㦂
鋞
搳
抰
㛯
褽
迀
頙
兂
巁
袣
笡
胒
諀
䪢
㧘
筟
橖
峮
葞
諎
㝗
䢒
鷣
瓃
繊
䌌
肔
𫜃
絩
藬
犟
㝉
鈫
倸
䉾
滣
渮
䳭
鵳
吔
蚟
䙅
豱
餪
噊
㙷
陮
嬹
𫗬
彏
𫟻
銂
篈
漖
蛶
諩
䋤
䦊
䙟
鉨
樼
賌
䨇
鸆
䜁
䘃
崲
髶
湪
㷄
衳
㕚
捓
躽
呇
𫈎
鯆
蠗
樎
瘚
哶
𫘩
躛
騜
𫚙
葝
紸
柊
𬭬
煛
鏏
竳
𪾣
眝
䵾
挅
𩨄
憢
挒
騪
媄
嚛
㒧
蠇
垷
躜
𢙒
䔛
稢
㝩
砽
鴔
藰
𫛡
薡
瑻
葎
𪻲
𩩈
䯤
鱬
譳
驡
𬶏
濍
忚
㦎
瑖
鮠
𢛯
怌
㒹
眓
欦
阠
刕
薴
蟱
䵬
𫎳
驣
玾
㒳
帾
鋾
䟆
踚
忦
襣
檺
懪
雂
攭
䀡
葏
肷
䙓
堟
暿
褼
璄
眱
淭
毲
㸚
䩮
珢
坆
垶
䭡
糿
薂
釫
醶
鰴
㮯
䬾
殶
韹
嵪
𫑷
劁
䚦
挮
㹞
镸
䥈
珄
竲
臦

雡
蠬
䜏
䀩
鷚
𩨃
㘲
祪
䋁
獚
堫
揈
騝
厒
摜
飺
酄
鎎
㝈
蛝
朆
孾
嵮
劐
𪧀
璦
嵢
洬
壛
柌
纗
桪
茾
嬐
𫄹
娞
螅
洰
㥋
馢
敽
䍃
艥
鷋
廲
濽
宨
恞
靤
䊮
籾
痶
垖
赥
贕
睉
謘
幱
鬗
瘊
翇
藆
鈢
磠
幜
暣
輫
仱
鐅
坃
顟
䘯
莌
仜
矄
㣿
磃
豥
鉐
䀏
伒
䣍
鄥
㗚
鱑
灹
鼴
穲
㰆
韟
䖡
䋽
㥜
鰉
䙡
琙
峸
箁
䭷
峓
狦
倁
凚
𫘭
刢
騻
㬮
怟
悧
滧
橎
瑅
噋
玵
觬
箉
鈭
犥
靅
偍
圔
蟸
㕗
覝
蘲
㡯
皶
㖶
螶
䁾
揢
𫔴
㹛
瓗
磟
䙏
犰
狛
閵
韥
翓
㒞
犏
韊
脋
鮏
䕡
蜝
駗
踭
䰻
碽
婫
㕧
䂵
螚
㚕
奜
䳄
𪵣
䞐
鴋
䑿
夽
歒
琗
袎
䪠
琜
㕟
霼
鶔
鰨
㰍
㒷
䟺
䑕
岟
䉉
玜
瓪
敠
罊
閰
䪼
㹪
錁
鍷
蜭
𫚞
仢
犌
驞
歝
渷
鯬
㐜
隌
唹
潊
竗
䬼
挷
鮇
熣
淍
勶
訮
竵
欴
珶
焟
賰
盄
絬
瑧
巺
橮
焸
坾
㢙
㮳
崅
衉
裮
䘢
㱪
䋎
踷
垇
肨
孲
䯚
趽
㡠
𦦨
挀
楴
䦷
𧜭
莑
䙱
椱
驝
䘪
赽
泋
穥
泦
鐱
𫎺
炥
𪢌
㳷
奤
傽
鉇
䙭
㘓
嗐
㓞
䟃
襊
迱
碐
菾
鷪
侟
梄
笸
鸄
鴊
啈
叿
坮
磼
揤
杋
鑻
䵍
雭
懝
鵣
㮶
锛
欔
氻
脿
拃
欪
㕥
㹱
㻫
儙
嬇
𫝬
耖
篕
秼
飁
藈
鐆
䋏
檹
坔
侴
涭
伮
愩
卛
镻
膐
𪎈
僼
䰀
譐
赹
𤫉
䭓
㷆
熮
鳫
䴬
㧓
謓
萞
鼺
鷎
𫛨
秿
嫴
喅
鵧
鱃
䔄
卆
舥
㗘
𫛯
䌪
䰜
䊪
䑽
鶭
䗐
瘎
鷊
蓡
魰
䥶
旲
䉡
螪
䍁
䃲
㰂
聄
踃
莥
搙
鑗
㩴
擨
嬄
𫛦
渏
秳
㽟
黢
鴮
䏁
垀
佱
䪻
珜
騛
粛
䅻
騼
㤞
䤋
遧
歖
扲
𫠋
㠥
䱒
鍡
㶄
吂
雴
餀
漟
酁
杔
䰛
㕹
湶
鶶
褞
箶
㯭
衪
㡬
䔍
棩
䠠
锩
犣
𫚑
䀪
𫟷
烮
孒
噟
䅩
伓
梾
跘
㐬
瘶
鉝
𨅬
齫
貹
癅
珆
硡
䥴
绬
婍
煹
㟢
㑗
僋
桸
澖
輄
欗
𨐈
䃣
咹
昿
俕
蒛
俽
洐
䳡
㟃
衼
㙁
悙
嵈
靪
荋
繸
羷
焅
㙂
䥏
嗂
瓭
鶁
檘
枺
㬻
靇
艡
㲋
㟼
蹃
泩
㯷
㪅
珚
鮅
谉
㘥
歶
葋
灛
䅓
鐰
㙉
鱺
蓃
驫
坣
鯥
㗛
鍝
瞔
艬
玧
栂
餢
烴
䑎
靯
𩮜
焣
䴕
淃
㼖
䍚
䒶
鐁
鷵
簊
膧
芢
咴
㗤
紴
䝤
钌
䍮
杩
嬮
憉
迉
㓠
馶
屘
輺
䲨
栣
㨷
鑡
㵿
灖
㡧
䃘
䖃
㔨
䩜
纀
䨱
䳵
扏
𪺻
啔
溤
矃
㺜
𬶐
躝
唓
荰
𪠳
虅
鮡
䃸
蘻
鉘
皢
敟
倱
噧
訙
㺐
㚘
巶
䡔
褯
塎
埲
㐅
祌
籄
㡪
酔
罁
餿
蘳
㟳
遦
幋
緈
㦧
暡
䭒
覣
聁
㘣
脼
韕
蟖
䵫
菧
蝫
攋
䴚
焍
怴
𪮶
痷
㣥
岾
蠿
屳
㝔
㪯
詇
浶
䩸
㾐
桬
㗭
㧺
鏙
䶒
㝎
㹖
嵜
淕
㯐
㧁
䑞
傄
豠
鍗
玣
挭
豛
㨄
㟦
仐
撶
栥
襩
坙
禯
䩛
菒
亣
艵
鲼
䡮
銵
蓎
䠓
䝁
䜅
䅎
灆
羳
璔
㕭
礕
㺷
阾
䲢
滐
窲
崳
𤶊
䕻
蟼
墿
鋉
榩
䓇
𨱈
癐
㽌
㳌
鍸
彽
㤽
駺
㵝
焇
笒
祄
馠
弽
鴧
㭱
岅
蠳
砡
怇
𢈪
𩛿
暶
㟍
鰧
孷
菃
蝲
馦
脭
湹
糷
徱
辢
撨
槼
㒩
䠯
䄉
䬴
挬
慛
囄
畁
㞜
䥘
㿿
嬼
鱡
覥
䬪
橶
鈘
腅
䋺
溮
徍
埍
䋀
癑
奵
齛
詋
蔝
蹨
鏋
憱
鯩
刔
㠖
嵴
熌
𤇄
硑
䈣
𪻨
玽
蘾
顲
㨾
缍
釲
熩
䃴
脪
㤰
噘
𫟳
㭏
椲
㶌
蝷
峵
澩
膸
䥨
倻
燱
筬
媷
鸫
嚁
麉
瓄
嚝
薟
瓺
䘨
鈂
㔾
匷
鈑
珿
䑣
唛
𪲎
睌
櫅
砘
萅
菞
鮤
𫚔
𫚓
瀩
䍩
熐
齇
詌
㴔
䫜
鮰
硂
瞉
㬅
㮞
鞱
𫜀
鰦
䀣
鷐
瞕
貄
堐
楍
檁
櫁
枽
軭
𫚤
偛
椃
嚋
㙺
帪
懛
玀
䏣
㿊
癔
鉋
竏
㡚
彇
圢
樃
偅
穳
碒
鰼
𢗓
㦛
黗
蔰
棈
蒝
蔐
釨
齨
憏
鶕
傆
𫓦
𫐷
遱
䰝
愪
𫚪
㓖
㻮
頢
覙
㐰
豂
龗
鶟
㲨
癨
酭
麿
䞈
猂
榡
滊
艏
𧹑
摾
夳
䒷
㜘
鄻
蟔
檧
軳
䲩
謺
䓿
㴉
䦆
䖧
銿
翑
𥅴
軡
逳
滗
睧
㔩
枡
鱋
柉
曔
㩊
䀹
瞛
猤
骮
杽
譿
魀
㢓
獆
讏
蓢
挆
椾
齥
萿
俢
㙛
饖
𤱶
龖
㣓
䊳
熼
騳
譼
㰚
鱊
殐
㢟
䂄
孈
鎤
𫍫
䛳
鉈
鎲
唂
鍲
嬓
蝏
𢬵
㾯
郀
焪
僠
𢥠
竴
爈
蛕
簢
䡝
孻
𡥧
𫂃
峌
桙
䑄
䁟
㸑
顮
銻
嘪
槇
埁
𩧲
蘟
汘
駧
䆟
秎
蝞
笟
𪡃
浱
𦻕
杒
𫘱
虶
伆
瞁
黋
胿
尲
蕦
靱
垈
㒒
鷶
朎
帍
豙
驨
䈎
陎
瓾
魝
謶
湷
𠛅
㑾
𣓪
𪉂
㚋
摿
娪
聭
㒊
眖
㗁
莗
橽
㨶
俒
䲰
牰
䈒
狣
䈰
𨱁
犈
鈠
彁
㫷
䩨
咰
漌
肑
瑦
嵀
㡋
艜
䘺
㦟
窉
㩅
眏
餣
訫
皾
絥
䱱
𫄢
輌
驓
袕
頾
剾
㖩
𫘯
窏
叓
澕
㭼
祱
膒
砨
𫏆
蹳
岒
瀗
㬫
㗲
䑲
鹲
陯
褿
呝
䕮
顠
𫞡
䖤
袃
㤉
䶀
恜
炑
吤
𩕳
䯼
鴄
爃
癧
𠵾
璓
攇
縎
琔
焐
懤
懢
秜
䊡
𫚡
嗘
㣼
迬
簆
毑
珋
𦈔
㞒
䒢
鉺
啳
簅
鮯
漍
㕎
鱛
䤥
黆
鲄
惐
妴
𫚗
艆
𬇹
猑
聈
僳
垁
㭈
擈
䓓
䱡
薵
熰
鳑
埫
綊
歏
瓁
筣
𬉼
鹶
厊
仸
䧄
娰
䳚
䠇
皅
猏
斦
厏
孎
蝅
愢
𦈛
繓
禙
䅳
龓
峼
懚
穚
𡠟
僐
䑩
饝
娷
𫜲
䖳
擑
䓴
𫀬
鴷
䖸
鯞
羀
㶧
牳
䅧
鑘
硟
趛
劺
䟤
澛
腂
厵
恗
鍘
烞
墂
碊
鈳
嬳
婹
涱
緽
㚌
剼
扷
爫
㧬
溋
塀
傼
蜏
逩
枈
泘
蒶
襇
眰
嬯
忛
宊
㿱
芌
揙
𣏌
𡎺
㳺
矏
蘫
䝯
㽎
痵
騥
龜
䉋
湗
暃
毭
䰒
灪
䫌
㳕
䢍
埄
弙
㩼
颵
惞
锗
硺
灡
腬
庩
稨
㬤
㽹
𫁡
濏
䃕
鴗
櫲
䏧
餯
橨
䙆
糫
坄
鞊
齼
絈
燽
䫥
泹
蚐
鴑
仼
𫓨
溛
枀
𬺓
鈛
洷
磭
旑
幒
䵝
𧵥
蚮
䊝
䞚
樍
彾
翴
嚯
萒
玸
䗥
䄡
丷
侓
戝
䐲
爋
啺
鳹
衦
疍
㜅
𫠑
𪎌
錽
咾
㻱
䱸
紷
齽
膡
𫓸
麳
凒
欆
箣
葿
䅟
瞝
瓥
銈
㑌
㷅
匂
耠
𫓯
㳬
㨔
䩌
郩
䊧
𫚫
鱢
㳫
䖹
岽
㚤
疨
縃
㓦
犚
餶
壿
㷶
挊
䏙
禢
皔
揁
姰
膗
魡
犐
䋣
坬
㨙
紻
䧞
䔇
鲯
燛
旇
䗜
𤺊
鎠
趧
蕼
磖
鳋
婎
𣽷
綨
樧
攆
瀃
潽
錊
鹱
䊉
㬗
睭
褈
愂
䂦
訸
鐤
䰎
睲
睈
鮁
剆
靹
鋿
䶦
炶
䊠
錩
䪅
䋐
鐭
䇽
䃍
磂
矁
凞
筎
詙
匬
䨣
瞦
珴
傏
劕
礣
㲚
㝬
䝿
䑦
悏
㩖
䩵
侢
岻
鵺
蹚
騌
䭇
圤
柆
筘
霬
姃
齈
㗻
聎
瀥
凎
鉩
䦟
𫘠
蕵
駤
蒽
遃
魻
㯻
祽
䄟
鰪
髍
讛
㐄
裬
唥
椻
嗵
飿
俹
飅
徶
䮧
䖑
䛩
浾
汥
䦶
㮨
慏
𣲖
皗
踜
駩
㰤
棞
䳋
䆠
䞨
楻
湬
鰔
𩧴
祦
𫍮
莄
莐
彺
苩
蔢
浖
誳
鈱
㫬
睵
㡂
㤍
蝔
䌟
䉍
蟗
䥝
庡
𦈞
腣
輱
㙬
鬞
覱
孂
誁
搎
䃳
㯂
㙚
濣
䘱
塶
𪣒
蓒
錉
潳
憵
㬰
藗
㦽
騗
擳
骺
㭘
玂
堚
穇
𤞃
鑙
馻
騹
侎
嬔
棇
㹨
籂
獩
𣟵
鈄
坸
茐
㾊
姷
榟
䩺
岇
紶
龒
䜄
犾
𫍹
謯
㰅
㡜
枂
螡
䃔
痋
䙾
譭
㷖
䏏
㧌
蔶
貚
䇾
䬙
胩
䠋
徎
㮓
鞽
䢙
愘
䗁
䑠
砋
𤃩
㯫
䋌
筫
枔
㩣
棭
焈
癴
艂
郮
珛
剱
譨
萡
獛
㑂
㓼
葃
漀
𫍦
厡
勭
烠
𢷏
狅
烥
哊
獴
榳
㺉
邎
䬟
搾
甇
墰
祶
鈙
䬵
藅
䑔
喡
遉
兀
鞷
槕
袶
祮
姂
𫍱
涥
癟
砇
敒
䅣
𨸟
秗
䶎
蓭
溩
䧢
䏵
㲩
穙
諯
牭
䭬
薼
𨱒
鏉
婔
摗
繏
䶧
姵
蕿
䨨
䥺
謴
蟤
賥
耟
軲
𦈝
濗
磇
礤
䫤
妿
䍖
婄
㐷
笩
鼤
櫗
蒁
〢
䵋
䆡
赼
衧
䎳
牅
葾
䟣
櫉
烗
㫰
㦒
㛺
獈
㢋
綔
䫫
㯿
霟
蝰
㸏
桟
喠
檫
㺱
𫚒
榏
䘸
漃
愝
䳲
鮄
褃
㓢
愄
㘝
俖
譃
㣇
鑸
䖻
妜
㝞
熽
萛
𫓵
䢈
胓
䩫
呩
鉖
慡
痸
鋠
觾
搸
㡳
㲰
䌜
䑏
㜎
㨂
蚙
䨼
繱
㷔
䅘
鷝
燩
魜
繺
揊
鮵
𫚛
偤
淉
㪙
嵟
㱾
鍣
訅
挰
𢜮
鲴
辪
砳
珡
㯼
鮾
菄
𢋈
抁
焥
㢝
绗
鬫
眍
䞉
岤
㒍
堹
㼌
隵
秛
耓
厇
𧹞
㼱
闝
㽃
㒋
眿
𫛬
䅌
憽
燨
勜
諃
溙
𪢕
迧
䳜
䔺
癄
䮚
姇
睖
砶
㓵
奻
蕜
㓹
䓶
磫
睤
嚽
𥎊
䰠
璢
锫
㑦
鳁
䰰
㦗
㞚
㡒
䀀
礸
澙
䴭
㢰
贀
豴
䳨
猦
㰕
䔾
㗫
㞯
𫌀
襀
鳉
䟡
㳍
䅽
㴾
吥
㤝
躂
轁
䯧
𬕂
䜴
篢
鉣
䮐
㐳
㓻
㳇
㳯
蕏
藠
墲
峾
䈂
㝤
䤄
辳
㙤
琣
颮
蚎
㽛
勄
䪿
㱂
䎒
𪢸
桏
轷
㕛
𫎌
漡
韾
繝
撌
貗
紌
鯚
庘
塱
㝣
褟
浫
疞
𫛰
溒
畓
䳢
垊
㚒
䡇
浝
劶
䩥
謧
𥴧
繬
䜉
祬
𫄱
笣
塖
㛗
䳓
焷
艪
䌤
扽
礘
稵
鮈
鰽
磀
襉
䥙
㮵
𫚧
硄
霷
𬶋
苂
䒿
糃
宆
澫
掅
𬇕
淣
恴
椢
䛼
惁
朇
䒗
麘
䓟
鼥
㽨
䁆
帵
滖
蚲
㴻
櫙
鲘
颹
䡺
㫙
煪
㶕
𦘍
鄌
裍
夎
烳
㘿
鴖
畄
聛
剈
鍎
霴
魓
蠞
峺
䓘
樬
泟
栛
畻
尯
傌
㺦
鋦
䈪
瞸
㹮
𩾃
鮸
㓛
伵
䏖
噒
桗
㵪
尦
䴹
頛
掗
賹
肦
颫
㷮
䀜
堓
蒷
铈
鐟
䒱
堜
䦯
爩
伂
㚄
凗
鍿
阭
嫯
偙
憆
㗨
𫔵
珗
锪
灗
鉜
蓹
䭘
㯟
㦁
螆
瓙
牃
堷
㑭
朷
舭
諹
鍒
崾
㥷
搲
䅜
䦕
䠆
鱹
砕
㠜
鲏
堾
𫔄
迲
犡
摨
䗣
𫏃
迼
憷
潿
碹
勬
䃌
鐴
盿
銴
铟
椂
睷
䧅
櫘
䴺
䖦
㖧
癝
𣰋
鮺
䇘
槂
賱
輰
峑
惿
𫄣
鎑
䅖
奀
蔅
祣
䀛
瀈
䄂
躥
繷
𩃱
趏
䡼
䈔
癁
㨊
稪
襔
踓
橩
䘴
糤
銽
䃗
侕
礳
鼰
爒
䱎
䘚
焛
琓
㻒
裚
㱁
冟
樋
㱖
𡼭
怬
㘨
綛
櫔
荿
䃋
迠
䋗
䌇
㵫
靀
峎
幚
鯘
䄚
傗
㝐
犑
㒓
榒
䅶
𪉃
讅
盺
穻
鎯
𠉂
䔮
鳼
壦
藮
孉
軴
阥
杄
炴
𨱍
愌
爖
硧
佧
蝽
㭤
䄎
𤇭
漄
㛪
𡌴
迖
鼭
䋢
簈
酞
踇
䙢
殅
汿
泈
筪
㷠
釾
㼶
㪜
伿
揂
㺊
捹
㟯
䨓
㼻
㾓
䗽
鳂
銄
伔
峆
蜁
崜
偑
㐽
洯
烉
傐
䃰
驏
䨾
餩
烐
斊
嶗
鈓
偳
鐝
霺
峈
珘
䗱
蒕
洡
䮷
豟
䃤
絽
鷠
䂍
旚
㳛
滼
䢇
踙
濢
䟏
哾
㻐
㸤
埩
䗪
䗲
骵
珨
䣝
奍
蔛
鑖
禲
喐
楜
烼
䰫
喖
杧
榵
簛
䁑
讑
𫘜
膭
賘
螏
匲
㗇
𡗦
馼
耛
癛
伄
䙫
䯂
㣫
䗧
㾷
螐
犃
勽
稁
㴐
樢
晪
闣
澢
䚥
𩍐
洅
㠊
呍
㸲
揇
㪔
䘹
䭉
𢄐
澲
槆
潲
徏
潃
楤
曂
壋
䫴
荶
嶏
萗
旘
譂
媉
㠔
幆
䨒
圱
﨟
𩖗
扝
𫟠
㳘
弿
鲆
鲓
䕁
雐
壀
鮳
䔞
㝪
蕬
壉
䊵
鉓
㽁
攳
鏷
肍
誀
秞
銞
蔋
𨥂
堸
塇
蹧
䕼
㑊
𠮶
䠙
諊
軐
鯗
竬
瘒
殏
稐
譋
隫
潹
㠢
阣
㶷
驇
㪤
㾭
媨
㶼
𫍷
𡧘
䲸
䖮
𥫣
躴
鯭
㠎
琝
珃
砙
䫵
㢉
趥
䌥
䦛
昍
篟
籅
焁
䳎
䭸
䌳
㼴
㳻
旯
䚯
𦈠
儯
謉
䢐
䣆
尶
毠
㵼
𡻕
赿
掕
鵮
竨
冿
逫
䅥
㨃
鮻
迶
炝
㭴
㰏
葕
㼤
瀊
䁹
訡
䝄
鮋
皘
巬
䶴
菬
魛
䌆
棶
䗈
勀
秲
䵄
艀
㯃
㪿
鵚
懓
耚
歮
柗
窚
䧹
踍
胨
螛
檅
徾
𠫤
儖
癓
熪
秢
唩
𪉍
揯
暽
暓
䭐
㵢
骬
𨍏
檚
灱
劜
憌
錏
軩
潈
𪭵
醈
畘
殾
嵅
〣
凁
㚢
㧍
䎫
徣
㙭
䛡
䈿
䛐
䀂
跭
䃾
瘄
肒
旾
㼰
㹟
糼
䇕
讗
掚
㨭
㹁
悜
䵂
衏
渂
𥻊
籷
𪺽
猌
掟
䃀
犽
䁠
慖
𫌭
焝
飳
䐇
㥢
䡦
㠿
㱇
㝨
恘
覹
䃧
鉡
䂏
䐜
烎
僘
媂
㛣
鰎
帹
䌉
撛
㤕
𪺷
梚
㬙
岶
靋
湂
帇
鎢
袏
艃
乲
佲
袬
䧺
儾
㔍
瀂
焿
獊
㱏
笍
䐣
䥵
剢
顊
聇
䣺
胋
㼎
銐
諣
䜶
㿉
㞷
㞏
䉽
羦
㢀
瘮
盽
錅
氺
仯
𠭴
㨀
趈
膪
𫍩
樳
鐾
髞
囶
䅭
㺅
㝲
鬎
誫
眻
苿
捰
羐
㮴
㓺
蘎
䚹
㙩
髝
醂
吙
咟
𫍨
䄄
筨
㟴
㠲
亱
䈕
涃
娝
膕
詓
㯲
䈱
𢙯
曫
渞
㡴
𧂐
㣤
晘
䰙
钸
䌽
糣
呁
㮧
𫍜
㑷
䬆
縘
䓯
㻾
𦕓
勯
䍶
籘
䜈
傊
懏
鷆
㼧
巊
馾
痦
㱮
誱
躿
镽
睰
湰
𪩎
㻛
娺
樇
𦩘
䔑
栶
皌
垑
㙠
㞑
𬍤
㨣
梒
㗿
搛
慃
莀
㱊
𪡛
㲦
䵈
蔸
䵻
刡
䓦
熘
䓸
聹
䍘
蛼
歑
璕
㩌
㯠
䟱
腉
䯁
𫓲
盙
㘧
媎
㣈
鴍
䕓
䜧
赾
牬
聐
馟
铕
潶
䋸
軁
㾈
瞜
挸
䌈
䁖
㵟
辸
嫼
𦈖
鶈
倃
燤
蔙
臔
䘘
詯
䘍
𫞦
澏
錜
䡬
𫓻
㨑
𡙇
寲
㸒
㦕
䗏
燘
琂
䬽
猸
䟸
溕
𡬶
槣
𤅢
䈙
䨟
銁
璾
徸
㹜
婌
䌰
縙
䋖
㯰
㙲
勈
倊
䓪
殦
睻
懧
䈽
鑍
漞
鴓
唒
悿
僗
殨
㵧
𦈙
䪁
陠
酻
躖
淧
䕺
狕
炢
忋
㻁
䟷
馩
㶚
䤪
囨
𢑥
泀
慀
擆
傸
鏾
眪
䙃
㰌
覍
绱
䔃
䱓
䂞
㑴
㞼
屽
䘐
梤
酼
㺇
瑏
𫔌
鮔
䪎
㙡
奆
䖴
䎀
煡
㤜
籱
詤
頶
虃
岴
鏧
䞣
㭪
梖
贎
𫋲
揓
蘔
𪱷
遀
䙔
鴲
娡
䋄
魬
伌
侾
寊
鯍
艞
萓
𪉆
匫
䀝
衶
墏
廘
䆘
㗔
鍁
䇄
鋛
擛
鯯
𫔊
萜
㢭
嵨
襝
𬶭
㹌
㿈
㰩
踀
𪰶
繎
䲕
𡧯
䱋
炾
洖
䇡
唍
鏥
㱻
鍯
闂
曊
䘕
㮋
𢥞
鰶
䵱
䰼
䖶
銧
饃
㛮
玌
鱙
皣
媁
鵏
櫴
蒾
𬷕
㯏
啨
䍌
禶
𩧪
鎈
燗
㣎
螎
㷏
鰜
蔒
鎀
馜
𫟿
㹫
𦈚
䮾
凕
釯
㛴
簼
㤋
梥
縬
棢
怶
雵
䴳
訜
㪣
㹒
匛
帎
㳔
譤
䬸
勨
鰸
塻
薘
㟚
淁
䁲
𫍛
摢
㢴
䀼
䤸
䅵
娤
歄
腁
㨉
䈐
㰞
墔
㧊
軗
鋳
䑰
怉
箲
妚
䃽
䭲
筂
㽀
𨐅
襑
㖪
䜕
䘖
䬍
訋
㳙
䌘
鼑
䑺
㹸
㗌
鶐
誏
㯢
璷
忂
𠎝
苠
㠝
𣗖
㨹
𧦬
䀭
鹷
痲
諙
呟
掑
锶
鱶
凐
爏
㯸
䳰
䲬
䁓
砈
蚒
虂
𤦀
杺
銆
荹
㝯
㙐
忎
䒰
鮊
聥
䣘
鏪
㾪
芆
㬈
焀
陦
儰
鑏
䏲
駎
瓕
䂺
塆
淗
䐔
𩧨
㼽
鷌
䬀
硣
鵭
敆
韖
𣂁
萫
騚
禤
䓃
螥
濖
㗶
鄓
㑄
㱴
涻
唋
拻
炃
𩨊
徢
譗
鬁
𧝃
𨫼
豧
䒹
匤
砄
㽈
䢷
㴦
䒩
䦨
燺
乷
葻
䒑
摌
嘺
𪡀
勏
䞭
譅
跍
阦
鱵
孹
宩
輍
䯊
鑹
䁔
㑵
湤
鯟
䛁
掓
䵓
竩
糀
㠌
搮
㚩
襽
𥰠
絗
㭨
娏
菕
㱀
䢽
瞈
㝿
㜏
嗴
笝
錖
㡞
㵌
𠐋
裉
䢰
侰
䈼
㓕
綶
賆
䊋
䖒
𪷍
䵨
䫨
宑
欼
簕
㡙
磸
窇
洘
䦃
髸
恦
㵾
㾞
㯥
䯻
铑
㕳
㦜
㵨
狇
鶜
𫝮
踺
啋
笎
鍞
挵
㩠
㛃
㒫
燚
耺
曥
镙
䬳
縇
胟
濧
𣆐
寭
劥
㚸
蒣
穁
䰽
哚
䈛
泍
摤
㝸
䮽
枆
㠂
䄖
藱
孄
韚
搻
㖷
棦
㢘
葲
钪
汅
埐
㡗
𧝎
囩
垯
䃁
頝
啛
墑
縤
捚
穔
𫠅
䲟
𪣆
䲺
禌
惖
靗
㬢
侱
矨
㥑
㮹
埬
戨
瓋
㨡
䝈
𢋙
杹
刣
𨘌
䥧
䥷
𥝧
䵺
䎠
菗
䈏
㭺
蓅
㣚
琽
𧣴
㱦
䩴
袔
賉
鰀
磆
靟
䘭
㰘
藯
㭍
鮩
㞡
奃
脶
䙞
䃷
韢
䮯
䉴
洆
倲
姈
㹇
㑈
毞
烿
㕡
䁈
捯
䘽
鮣
嶑
怣
卶
閳
䗚
䳈
㦿
溗
䚧
䜎
𦈑
𧳏
㪋
锖
妀
䡲
䪌
覅
爠
㯮
圶
䫛
烸
𥴖
㜻
緸
皉
徝
朜
㥥
煾
騴
㞋
怑
㼡
鯜
鏼
洜
誢
鯺
㐾
㪻
幯
訍
萺
葨
㽉
𫘫
圼
膯
秡
傠
㮊
齜
䍴
嬧
㳆
螤
擮
䌫
埞
鍕
碀
䡨
鐌
𢠳
釠
𪘏
㨁
䠛
䒅
㭁
㻍
毤
梛
𣸩
洠
𦚧
㿪
疓
㡇
抩
𠇗
鉃
𢷋
檰
仫
㺎
仦
𫍤
猔
敯
䗤
紤
譑
鶧
焳
𢯱
𨚫
䓊
㖦
靰
䅞
雦
䯜
殧
痜
䌼
䴿
㐺
𪄠
𧽼
褄
𤑔
煄
㪬
㰹
疦
鱲
䃙
劤
䯒
棴
䰉
铌
鐪
䂑
凮
𫚭
锇
螠
諘
呯
㼅
筃
䯏
㰠
謤
揧
䣑
㯈
䆛
崰
嬩
邼
拰
稶
䌞
㪁
𫓺
䍍
𨈅
薣
㔜
埉
媙
㠕
㮃
𫠐
擤
㽔
㨳
𫍠
㗅
㢁
魽
䥢
皍
牞
㖔
丆
䛄
㐹
膔
芕
蠄
㹶
䶃
龴
踿
蹥
㮛
䵀
禉
鱤
昅
匁
娚
槡
䙬
誜
鵍
鱥
䃬
篜
耢
屶
䠸
皟
㷇
鈼
涰
鈻
𤾀
捗
燣
䯗
蚫
汷
翗
釈
䕯
䡟
鬶
㦝
藀
暊
䝪
鉍
鑳
畂
㒔
𣪝
䪜
䪍
𩖼
䎕
㙋
鰯
墚
㗃
懄
〤
蘣
晆
㢕
蠂
䫙
㮂
㧒
䚕
㖡
䭱
摱
䴀
篫
䴲
䖜
䨦
峏
焋
毢
䘓
蜔
汣
㸂
孯
懎
𢠁
匥
槶
詜
㫼
纙
汖
軠
貦
鐗
硲
䑡
翵
仠
塣
媀
炈
徻
盶
駨
瞐
糛
蕱
㫁
咞
箿
磙
䥩
㔹
䋶
襸
䇑
唚
𨱖
𩊁
㿅
㘽
楁
陙
磰
𨶒
鷈
嵧
㒀
坹
皒
栕
鰖
㟵
屒
䯇
剹
庎
䀮
𩔣
䴅
䯱
𪁜
夻
𣨶
㻂
飷
朠
儨
巐
𨃚
𧝝
秴
鏆
䖪
𨱌
䛠
驜
鯮
坢
妌
襰
拤
墴
𪲮
櫠
忊
﨩
礄
塂
𦨴
稝
㽙
𠻳
𦟛
㒿
泴
㶀
鶦
㲠
鎍
㯅
䴎
鴼
䃩
㹼
𠦜
褩
赱
䖯
隭
𫄰
錋
笉
鎙
䩬
𫛷
汬
鋔
耭
挧
娫
囌
䉼
㿒
㹅
㘃
钍
䫲
䎲
䨄
䀟
縍
𨑊
𫔅
醏
勫
綐
𫔈
㸷
擹
埣
棾
㑁
㙞
隯
魳
𫖰
潻
㒈
煘
𫠁
磱
㘸
㠉
鑉
叏
梑
焨
晇
悘
㱡
碋
㱥
㯝
摬
燷
鋥
锘
鍻
䫂
䀒
黇
㽞
荌
錛
䛬
𧐱
䮂
䄈
㙨
㞳
㑻
鼿
𩧯
湈
鏎
㢼
䤇
䑑
䫢
䓷
㬂
猆
瓂
挳
㗀
䐄
䋕
鰇
䃪
鉙
䵖
䊦
鋖
樄
䤁
爡
䜲
㘎
忴
啹
䁺
㟮
㖑
驋
煺
苼
凬
㕁
㴬
妧
匨
㺿
㪉
䟑
䖽
烣
摥
徫
禐
芶
䟭
嫸
硦
瑓
䕧
坧
鎘
鐜
𫂈
𪏮
㲀
逽
㳽
㹂
䉬
㟶
粯
澊
𤄎
媣
曘
鸏
𠴲
鋫
蕶
堼
𢵧
蒄
㡆
𤈦
糽
聗
錗
㨍
偺
伡
𡥶
䒵
𡺄
偣
𠺕
噄
䜔
墷
乨
㫐
䓧
䯺
㷲
嗩
緿
𦌭
鸔
箥
鷡
䦪
㱠
䤻
㙗
㔅
䋪
櫭
𤣥
訷
㨒
䀕
䘼
䁂
嶘
䛢
𩦎
䡣
陚
鴭
俰
铹
覮
軚
灀
婃
䐿
𪉊
駀
僫
俧
劷
𪮃
拞
奷
䖭
㺨
苸
絠
䥸
梉
㜺
弫
鐯
䲅
㧢
㨻
㿴
鷨
盵
𫚜
埮
㶅
辷
𥈭
𪁛
秐
䃹
䆕
琧
䏠
脦
奛
䱻
輏
䓉
㷡
䊤
䆲
䚋
𨂣
鵨
𨩲
鮢
㣙
奱
㞙
謸
剓
䏽
朤
䒽
㖉
汄
锎
䇯
𫎱
𢁥
㓣
䬅
耪
𫍵
梙
鋎
䟐
翈
覄
鹛
䩍
汌
㤏
㒁
莈
搇
㘴
鯕
駋
檂
𦈜
紪
瑡
䗔
怰
鉵
綤
䢱
訵
苭
𪁪
犱
匟
䌻
䌖
枴
䩊
䀽
䫘
埑
䑼
㟹
㤙
銉
𠛎
㑣
稓
䜺
鍓
秮
䭅
媗
莮
䱭
䧘
炦
痮
笌
炇
魤
𣪁
㧚
燰
礈
㮦
𥲅
鏛
䱌
萶
䭆
䰧
䆁
㫗
㧫
𢧢
㭔
㬐
脜
躀
𢦤
䩁
侺
璶
漽
𪽪
㟞
𠼪
儬
𩦺
䉃
㫊
仧
箻
㹻
𥳑
孁
㚶
铼
檭
䜛
岄
淎
楋
歞
䝱
𣘴
𢍰
綕
䒨
㣭
㵄
𤸁
炞
蔄
䘁
𬜬
踫
𪪴
糄
穕
饢
㮁
厧
㺺
㻡
㢩
㨝
蝵
臹
㤴
毧
尳
柪
䕏
箢
㨠
䱍
垬
䍲
詸
䔫
嬍
捸
冭
雸
㾁
㥒
䧲
䞴
牔
㫍
蠫
瘷
䤩
㘚
媬
闄
炠
烾
揼
㔢
蝧
䈄
䝀
䗅
𫊪
鏅
䀶
䝢
㖥
㜶
㰟
攼
㟊
鰗
䚱
軇
𠺙
鎽
䉳
鋽
摪
䰢
䧜
杛
誯
鮍
暚
峔
䤉
蟵
樈
蒑
𧫚
䀉
舤
顭
岎
斣
㚰
鰹
痽
吇
鼼
䰈
屪
椺
焔
䆸
郆
䭑
墵
屷
焵
𥁢
渄
𥯴
𫗱
䉧
苝
愹
㥣
嬱
蟍
䘟
鲪
靐
虳
𠆩
䉂
濨
䯾
䘩
烌
閄
𡾼
玐
䒳
笶
㪵
𥂸
砿
㓱
婜
䄫
𧕄
䖂
䍑
㟎
梊
蕌
劆
𧦪
㰱
䤿
妑
怷
怈
𦕈
䠪
䐐
𡾰
馇
𡷾
覴
汑
駌
㯱
䎵
䆀
䕢
䀈
㚿
𦆭
倵
䐼
䬦
䛗
𧇠
䣢
䢜
捤
䣩
䮢
䩿
𧮈
𧏚
㬣
吀
㙧
暥
筻
㮥
㭚
薒
牪
𫜔
䛭
啂
脒
𤋏
娾
璻
熡
誈
橌
仈
讍
鏀
籵
䯅
䴽
䱤
吘
㼭
蓸
𩧭
鰳
饸
錈
𩓋
䠳
鱱
媋
㲼
䇞
䤘
梎
揦
㲯
䚍
䏔
裇
㠩
顂
踻
炏
箞
𠟪
瞨
禞
吢
䰿
䋂
龰
鼧
羪
㣽
㕲
魕
䢉
㑛
㥟
㦚
衴
䯉
緙
鮉
㯔
熦
抸
藛
譵
䱴
㸸
鰟
㼲
榢
䴢
忰
𪺭
膶
倽
藢
恄
㕖
㦣
䋚
䶆
壪
妛
㟲
瀒
脨
秚
䏺
濻
𪮋
䟒
㕰
㩋
𠄏
㓤
焒
髷
爙
蔃
榚
犞
嬆
㘩
𣘘
㦰
㩎
訠
㔃
眫
㻧
㷉
䜂
茚
㟬
䏂
敮
𩲃
鈡
㴸
矀
靔
桘
䛘
𨵦
䭣
㫝
㼮
𥶉
𤇇
箽
裑
䞘
䥍
𣵷
菛
琞
犻
𧟵
鯧
䃱
㚛
𡨴
𫄲
䳐
㓮
厴
儣
㳦
鑎
縸
妋
揋
䇶
晍
畠
蒃
糥
䒞
𩗺
㮪
俥
鐋
絔
䵆
䆏
䬔
𥫗
𠆲
䐭
笜
䌎
㟸
笅
㛶
䇢
㥧
盚
玴
㸰
𩾁
坖
邤
䡹
㛂
䯀
杊
䂳
膃
阩
嵡
鯄
䰃
䰡
䬑
䈇
㾫
挄
伳
浗
㩢
魺
鰢
褝
釺
㕋
䏈
䆯
䢌
㽬
𣙙
𡽀
㽻
㦴
榲
砓
䆞
灠
蓕
碃
溸
㒤
鑝
𪶄
䭃
荕
譧
錿
𠌖
𪂉
𫗟
䙚
㲖
菚
怹
秨
粠
煂
䇃
䒌
䰲
䬹
耣
梞
㦉
𤆡
㙾
𪎋
畖
銏
㾜
𫟶
趃
䫗
䬧
𩠈
欰
溡
㡹
郂
䴴
嗱
昘
㠟
踲
碠
鉔
䥥
驧
䩹
鐽
䃃
㺝
檤
萀
礇
藌
榊
膣
㒠
櫶
橍
㖮
壣
萳
寚
妶
躦
䊎
頱
㞟
镲
麱
𪤚
䍙
㱱
𫟼
㚥
贁
鏣
𪠵
猐
𫓬
䡰
㹳
瞮
咵
䶄
艔
奟
垥
㟒
䙐
䁪
𧆾
㶗
鍟
粋
沯
囥
鍽
𪛌
㟿
嬜
圲
𦧟
㽂
駇
𫌯
𤟤
䦈
𡋯
熓
㢢
㒎
䇏
䭹
𨁂
䣂
隡
櫢
鈩
坓
㓸
灻
靕
䁋
嘨
䂭
㷊
𦩩
䑗
糮
叺
䩏
䚩
噾
矈
𢻹
𥇢
𢧵
㛘
𤬏
𨽿
㔣
籶
噿
蟽
鋍
𩐎
𩏬
邫
㯯
鯅
𠪾
𧘂
䵅
㤓
䓮
㕀
䑧
鬹
舿
䖺
鑇
㤯
䔼
𤇃
䄶
浨
皧
爄
甉
䓆
𪪑
䥓
痥
㵶
澝
嫆
欩
䢚
㒄
䕇
硴
㢗
𤮢
鯏
鈝
澿
閸
𩕰
㥠
鑔
娨
雤
繥
癷
䵩
覠
猹
牨
㓶
㘆
䤵
䛟
仹
㧦
㑜
䋿
劯
栆
刟
㔡
擙
䐞
鎐
䘤
𥁠
㗗
㦍
㟐
驐
靝
𣞐
䳼
爜
侽
𨷖
䜚
𫛮
䤞
䳤
䓤
毜
妱
㹤
䑙
䙇
暔
髨
㫻
婽
軂
䧇
𦈓
㗩
舮
蘶
呮
䠅
萻
𢅡
褬
䘾
趰
䀋
赲
䩱
琋
𢃀
奒
妽
㠘
䘷
䁏
㘪
䈓
颴
䉀
僀
朲
䤴
伨
搼
㖀
㝝
掱
梍
尜
碮
鮕
䦗
㮝
㟂
櫊
跊
囃
𩾀
櫀
䔅
𥌣
䎚
烵
檲
錑
䓺
䦲
㙄
軙
㠐
𠱞
濸
曞
畭
䰯
䅗
肗
汼
熧
㒇
婱
㮎
䗘
庝
霌
㸬
乭
袦
韼
𧍢
𣝔
䫧
獕
㲱
㘘
䚗
䝕
蜶
㵏
䓙
㨮
镥
欳
䥕
餸
硆
佄
賟
䭿
䰏
䟠
渕
䪂
忟
𨽹
𡞦
𠏉
㗣
諁
禣
冚
鎆
㒨
䧙
𩳐
甠
𡑞
𬭯
讈
撀
𧬨
璍
妔
䁳
㗦
牶
䄜
䨮
㹥
𧹖
澸
𩠌
𡜶
㻻
𩵄
𡔷
䔂
艉
㮐
㹎
㒃
榃
潱
𦩍
㓪
𦞦
𡐦
爎
㾗
𡿯
夓
䗂
㕸
𠍴
搱
㤖
䃥
㘕
晑
䔟
㿲
闀
鍂
熆
𫜭
崉
萖
䕞
閐
鰑
蕽
霯
匢
㻏
瑼
䱰
㥆
暞
攁
堒
耯
䐱
鞤
塧
钆
疅
齭
𨸃
𩾋
䃶
妡
徟
㯆
梸
蚽
慪
𫇽
𫚊
䯳
𦩫
燯
䞳
䃢
翞
樖
㭮
溚
䑹
㱜
㭓
䭨
㢅
㾽
䟾
䱟
𥱼
舏
㭾
嬡
䎨
鋢
纝
䈠
㟠
㰶
蘍
鵟
崼
㕢
㡃
䱂
㺗
㧝
惗
袻
駶
熫
㹃
䖔
䥾
𠈭
覐
㨋
餆
𪃃
㚜
𩧺
䧴
㵆
𧑙
䲃
鈅
沊
䐊
𫛭
䃚
䂃
䒁
氩
碵
憅
𩏼
𨬍
䳫
㴎
粓
撴
㮘
暩
嚒
枾
䒦
尛
𢠜
釖
叞
䆍
椼
𫛼
涜
憠
瘺
肞
軪
䥯
𡙆
伩
㤔
㨟
塷
炋
趤
葔
麭
栦
珳
𫖲
凣
鵎
榪
䪏
忹
䋭
粬
餇
咝
詴
䩖
敨
茣
𫔆
䫟
䍻
笚
兤
晎
屻
㱽
𫞨
盁
饂
躹
洕
䝻
㧋
慻
𪀘
䲻
硸
㻯
𦠆
㘑
皩
浀
𡽱
琷
䗷
䤶
桇
嫤
虊
鎨
曻
㽭
㤹
䧎
碲
㭂
䊩
敼
㲥
箤
䋟
衑
鯂
䊆
𤚲
夵
䩠
㞘
竼
釙
㾦
䢖
纅
𤕷
猽
䲽
姭
𧏿
㦳
炂
㦶
䫆
𥬔
𧥆
﨡
匓
䟶
䩢
銇
㔌
铱
捳
䈋
㭦
忶
䛕
㫒
𦏪
暺
𠊷
㬒
曱
𧹕
璼
㜣
䄇
詂
㸞
䥱
帿
玍
㐮
㧀
㭟
𪭧
粅
笀
䘆
𡚊
䙎
敾
儫
鳨
嬏
㒥
㕉
㨛
𣛒
鏫
䝺
擟
璭
哣
㟓
𠍠
㜆
櫮
喼
䳑
碤
傟
爦
抋
䈳
㪏
輎
偐
唀
炨
穓
瞺
猅
䔬
儊
炍
𧃲
㨽
㒆
𡾋
㳰
厁
熶
帺
䁩
㮿
㤪
擌
鲹
氜
㔷
乴
䆤
饚
繉
堻
唺
㼋
絎
聬
茊
掋
楌
邖
䭞
䋰
𨍈
䗯
凼
孡
㖇
𧕯
㬆
櫒
𥂓
㲙
姴
䇭
芖
䫎
㑋
㬦
庍
赻
䔌
㠸
刐
𣿆
䶢
㰰
䁵
瞘
幤
䯔
沞
䞯
閮
脻
秵
𥶶
㫜
㽪
熍
夶
䬂
䙕
訤
䌕
㭫
貖
姛
髜
燢
㾹
萂
䎩
𩧰
㜽
䳁
㯪
𫚕
憦
炄
䕅
䮝
鵦
㩘
䛴
㥴
䦳
䩆
砃
𨷿
䦎
鈨
𣓿
潷
喯
鍢
䛣
嫀
㱚
鰤
㟆
鑶
橯
狜
匩
㦵
㦥
鰛
菍
閖
䐢
慦
𦄍
㷒
䣵
䟂
㸄
㩱
仺
㱸
𫞠
龘
䯓
馃
鵼
䈀
肼
鱌
㧶
䏩
鱆
髱
櫯
𢖲
𡾊
𣿍
𦏼
洂
䓾
䦖
㲃
䝧
䤃
趝
䏍
𨔵
䀲
𫠒
𥙷
赺
䋞
𦿉
㩽
䏼
㱣
䐆
𪥰
疶
䨽
𪒠
爧
賩
斘
悓
㿀
蔳
𥱿
戓
㨐
㠄
𥯛
溑
䧦
䴌
䖷
弖
蒖
䫰
䔚
㴙
㠶
輽
㒭
𧘈
㥀
𢏏
𢠢
㩒
䘰
鹀
嬣
㻉
䨞
𥰭
𣗥
濪
㷫
㳋
鑭
㻺
艢
鵤
銠
㺩
橂
𫞥
尡
鹮
釛
荮
痭
砛
㠏
穘
珼
邩
䘅
铞
暰
睸
俤
蛽
𠎽
㱼
㯍
㤂
倷
㵂
䵳
𪑅
䇷
棛
㦻
㗬
䠴
䁘
㬑
㸣
䠘
瀪
䞍
䟗
㑐
溣
撉
㥬
軤
䆷
㛊
砪
靍
悡
憈
㗧
㤻
魣
𡲾
䵛
㫮
𦛙
裫
䥣
铷
澃
㖤
㓴
䑬
鍄
䶪
㴭
䉠
妰
擃
㠧
𪫌
峢
㰎
疘
崸
擶
釻
秂
潥
羰
擵
㫲
㫡
㴃
㸎
㵓
岼
墶
䚄
㠵
躷
𢶏
烍
徿
䵽
蹫
𨱉
䯑
㴆
蒰
瑐
𫄮
醀
䩒
迗
垉
䬣
嬚
鞆
𪼋
㛑
褨
䔒
㻷
㻶
㙏
熋
僺
毝
㪦
䂐
𦞜
拁
藽
䛿
䋼
𧿒
㛍
㡌
㺪
㥞
㻖
䰕
嶥
礯
㱬
堔
珟
焎
昗
玬
鱝
㔁
䫠
亃
𧔢
鏿
蒆
裃
㻑
䡩
羻
㾙
𩡧
䪤
忇
臵
鯑
𠌶
𨂂
龹
䔭
嚰
𥥍
𫅭
䢩
䜝
𧉅
矷
隢
㺲
㨬
㭖
𡶇
㗼
𣶂
𫝨
㻚
嵶
閚
𡊄
媈
烲
礍
嫐
䳦
㽸
㕻
𠜓
𥉍
䚽
𨒈
鯃
肀
㔞
㥓
𨤏
䔣
炚
橵
㰮
㼸
䜘
䈬
騡
𫟥
狏
煍
顳
䛥
䐩
娐
㾻
𠰚
昁
桖
焢
徖
䗡
瀮
䉷
㒲
䆊
㐨
夿
𣩊
㣯
崻
鐞
䴛
㥁
𢊬
𡚶
㼊
㷈
𫁷
媘
㺬
錻
隦
钷
䟛
𠐤
槒
賲
𬶠
䂈
䤕
葁
鰊
㣛
䉶
燪
賿
㴠
㮑
柕
㼑
牫
觮
䝒
哬
䧏
䨐
㹄
鑜
䢫
㕠
䯖
𧘑
峫
䭕
撹
鋴
柨
鋓
𣯶
㪶
𦶜
𨇤
蛍
媜
㢠
䖥
䗋
癦
𫄞
㼝
蹓
䀾
𩬊
㛱
箃
奿
舧
㸍
䐴
𠨜
㦯
鞖
姠
𫏨
䌴
㙊
䡉
𥉋
睓
陹
䄙
㴴
䂂
蹘
蝋
䁛
䣸
䊚
㱤
㛆
䁨
㻽
偂
𠉮
䄌
䮲
躸
𢇲
遚
䯛
㯙
婝
妼
䝼
䘵
𤤮
㵰
𫝽
㳁
釩
锕
䩐
䋔
腀
䣚
𩨍
㰣
羄
䋠
㖠
遈
𤫩
斴
㣪
砞
㔳
㦨
㿋
柇
忁
妅
娹
㪑
㶴
爑
㗜
㥫
䁡
䓣
㝷
勎
偖
䗸
誟
瓇
萾
苊
錇
呚
嬟
偔
䇫
㧹
䤓
䛋
瞊
怽
逘
錓
㪟
楆
䮫
㽳
㽽
泤
髰
顬
絉
㞔
𬜯
钽
悥
㱅
褤
䪩
𩨇
䎙
羏
䦏
䎹
𫗊
氕
隬
㵺
𤉣
㝥
䊶
砜
𫇢
𦈟
䐟
𣚴
鯣
㣔
犔
灍
𩃭
盕
鴬
阷
𩩉
褳
𢸴
𦯆
㻇
㦖
䇵
䃡
訨
魙
𠋫
𦨻
䵞
䂨
䟴
𡵙
猉
㢥
𧍧
䊻
𢹂
䏕
䋴
㤮
獔
媃
𨇨
𠧗
彵
鴏
䍪
㼿
𨦕
煳
䦴
䮆
㷢
淾
纐
鈈
頕
𩼒
鬸
㞰
𫞝
𨠑
㶒
䲦
䗒
𠦃
亗
𩥇
㗥
䩑
彮
橲
䤔
帄
峲
𫟞
𨀛
䏚
儝
𪜎
𦙜
钕
䭊
釕
𨸏
䃒
羘
䮔
漗
䁬
㾨
㢳
䀫
𢈹
𡩻
㣅
䌝
𣀃
䐀
𠿕
纄
袮
㤆
𥻿
𣳫
閊
㿸
烀
䁍
㳉
祵
𡺚
䚷
㾮
䨢
䬓
䬤
𡼖
㖂
馫
焏
㸽
崊
㦦
䮞
巯
騦
䳅
覑
䄲
㙸
珁
磦
搝
馸
鑂
鏱
軉
𩨁
粙
唖
峟
椙
睝
兏
𦵯
嗀
鸌
䧫
𨉗
瓹
䣀
鐛
凨
䏢
偮
婯
㺭
㣣
䏨
耂
邷
𠶧
㯌
䳀
㰨
巕
㣘
茽
㡲
㱯
㖭
㔙
𩜾
螁
妏
𧳖
魥
䄆
姳
翉
㼯
䴻
𪟎
䨁
峖
䩡
皨
䡞
䓳
䮦
銺
佨
贚
嚉
䆄
㕷
钂
勆
敪
𥭓
𡡉
㤺
䶅
鴁
𣊓
嶎
䠂
𩽹
蓔
㱭
㣶
㻆
𧬇
䯸
䒲
㒾
扥
㿓
𦅄
䋵
㙘
㰖
柋
䀬
䨙
䌙
䄪
䏴
霻
鷬
嶖
衐
㲳
锝
䘌
粂
䟼
娊
媇
僌
䣰
屸
𣔻
婛
㚊
妕
淿
𧌑
鷍
箮
㲗
䚨
𧓿
䬫
㧥
𩖖
𧙥
䅅
䡯
𫎦
㔋
顃
噝
㩛
竔
䄺
䧕
䃈
𠙶
䚠
𫝈
㽜
𫍳
諥
弬
鎟
弉
幁
釞
𪗮
絾
憄
䩯
𫅅
䇺
䈹
䴾
䍤
刞
䑈
㙜
爅
𩙯
䁱
髛
赯
簐
矡
洉
蜖
攨
㨏
㑮
㠹
𠊬
䲳
𨅞
蓙
䬝
莰
㲔
㴰
𨢩
矵
䡠
愑
䫪
㤢
㟖
㿎
𢹔
拵
𡩡
槰
㲍
稩
璌
㠈
孆
𢘽
䢝
㡮
𧵍
䔡
𢟤
䲒
𧊇
兿
䓼
鑓
𡘧
𩙮
砤
㺌
綞
䆒
㹈
䬘
𢀸
䠰
𤓎
𦲷
蛠
簘
鲾
膙
㽲
㩷
𩜌
𤧚
䵶
𫚏
𤥻
賐
矪
𪔱
䞦
䇨
姩
甴
𢱟
䥳
𨤲
䡑
椡
𦡜
㵞
〥
䴇
𡔣
㱒
鐒
𥨫
䫄
𣡌
𦇗
銡
𥫽
𧬯
宯
嚑
寈
𪑮
𡼢
𢠵
𪕋
𣣋
䗦
䈵
駯
㦡
陱
䟹
䓢
㔯
𡇼
薭
𦉬
㥝
䪓
𡵝
䱁
䚎
㧟
𪃦
𫝭
𪗋
𥉂
𣝜
䇸
䣡
踗
𠴨
𧄔
䯎
𤤺
觘
𩆓
亽
䙼
﨤
䂧
𩊓
毪
䨏
𨔤
䋾
㔫
䊀
壨
遪
峅
粶
䊊
䤾
㬶
𨽾
䇟
𥈟
𩔦
𧫦
䐽
鸈
礑
𥔀
挔
䕹
鰠
㤘
鰵
䜒
㸢
兘
鱂
嬂
𫵷
喕
嬁
鏍
畉
㮍
䋙
𥂖
徰
𩐀
煈
𧳟
䚸
㞹
㺖
媏
囻
鈽
髚
釮
㠣
渪
炩
䆖
䔪
鯌
䮗
㙎
䌺
䁸
㳧
䪗
㥮
𧳕
筢
䓠
缼
䦅
濐
䙉
盀
㗙
欜
奺
䣞
憥
氼
䚣
佭
㭠
躎
鰄
斺
𥀲
㳚
〨
殩
煫
樭
楐
䪺
㹢
䱩
㾬
䲱
𥳎
弐
䒒
嫎
㹔
䛻
𧟌
㤸
䳱
鐑
䝡
枛
媡
㳃
﨧
䤎
䎯
㷾
㺚
𨸎
𫖅
䯈
䐃
䤍
縖
㾏
䟓
㺟
䜵
錰
镹
賶
鐣
淽
岆
㟋
趘
糐
軅
捙
𨷲
㙯
𢜽
罓
㾔
䄢
䟮
𡚁
鲺
笗
𫜙
婋
䭤
䵴
㡔
䅀
嶹
䍋
𫍸
熃
䞗
䚐
賗
瘔
䱾
饏
㢈
謆
鐥
糑
𫝵
𥷃
洃
𤍟
䪊
㙈
巈
𡯴
㼺
䂚
礷
湐
䟢
𧒒
䅍
鎉
㝖
粡
騔
湺
铽
䬲
鷭
𤻊
䏞
榀
聜
㹗
烢
㰒
髉
溊
𩨀
虠
㠙
㿗
鑩
忈
䟿
䑴
䀘
㰁
甧
渵
栤
𠳁
鿔
砹
䔽
㒚
菮
㶶
𬸪
坕
勂
䐥
呠
㻗
硹
䂪
㗐
梕
𢔡
嫍
闙
䑁
燶
㷟
婮
椚
䅇
䛖
㭕
聙
瓍
䯣
㾌
㝓
䫔
䊈
䀗
㷷
㖊
㔗
錸
䗗
媶
𡣪
㿻
抙
竓
䈾
㧣
䩓
㶔
𥧲
闁
䉪
䂖
㩥
㪰
㾅
㘔
觃
䉮
𥌭
㳶
䉣
䑪
𥉹
𧊿
𩐨
𥁄
𤲬
嫨
乪
䊗
𣞤
㼘
𢶉
䚴
忢
𨓦
㮼
𤻞
婂
憳
𢄛
𤨠
殎
𧉪
闧
𦣞
餷
㱞
鞰
䍇
𣬈
𧆌
𥾝
㽣
㠴
䂊
𨽸
㼼
𥈅
𦒇
𦘕
䶱
韴
瞃
𧇽
㸯
㼔
䣯
嫊
䑘
䰩
𧬅
鮖
䧛
㗷
㜼
㺠
䏬
吜
䝛
㦊
𡗀
䋮
𥴈
㣑
𦐝
𠿨
𨈆
䆩
㕼
䆵
䒪
𤏶
䒣
䢆
𡣕
蹽
𦓴
𠸄
侤
𧇡
㞴
䕝
秊
䄅
篶
𪔳
𡫏
䋊
𥏪
䔋
𩛢
𢛁
珯
𡍖
㰋
𢢽
𧔉
𠊊
𬋖
𫼝
䔶
䥁
䤗
蠤
㰲
䩪
䵠
贃
㑃
㶞
𩇯
𧾚
䧉
戂
礗
𪀉
垪
䌯
㞛
㿣
娂
㦏
㮾
𩡳
㨇
𣓨
䜫
䎽
㴓
𥹋
𡘝
䇹
𨛬
𩚏
𧹗
㿨
䠿
䂩
𡸣
㜰
𦨉
筗
娻
㺏
钇
𨸄
綇
饹
沀
𩙧
䀴
䞁
䪞
𦈋
䎂
諪
㓾
䦑
䓵
癳
熎
㤩
撔
𣎓
䬄
㻝
鶇
𢹃
鎴
䄩
䬞
㿬
䨹
跥
塃
偗
䙗
艊
糆
涄
䬌
䧆
硽
㪌
櫿
𤠋
㰳
㤊
䨳
苉
鹋
翝
䩤
頚
䎮
䧁
㒬
䍺
𠻮
䠤
趇
懗
糡
漜
𩪸
鑬
㘱
䘄
蘏
煯
㫵
䬉
奾
䖚
䡍
䌓
𤍜
㺯
鴵
㟺
婰
苚
䨿
稦
䮸
㤡
魐
𪩇
䡚
笂
㵽
㔒
摂
仴
龿
㚷
䈴
㭻
䙁
䅝
䌊
𣿬
湵
晿
䭚
𫄭
䫞
嶯
詊
䅢
尮
䏘
綒
䩚
緮
䫦
䕴
䮺
誝
〧
䱠
𧝄
䉫
㥳
萣
㷣
㶸
𠐽
䅯
𣧗
㳜
蓵
䠟
䨤
𫟟
𬮴
粸
䂒
䲊
䟈
㓡
䱺
𥘌
𤴯
䴮
撳
䕙
㫓
𧐯
䡤
𠌯
胢
䴋
諨
𫠂
虝
㱟
垏
齙
溌
繌
銦
渓
䔕
䤰
餄
閝
唕
㬵
㤒
䊃
㻿
䩔
䚫
焓
劰
舙
钬
㐼
㴁
蹾
皹
𥜒
䆾
㷸
㫸
𫜅
𦉨
誛
㠅
浂
䫡
㽷
䓛
㑙
䛲
䇬
𦺥
䠎
疩
𤇍
𧎬
娍
䏭
䲜
荱
膅
㥖
䋋
鉪
涋
䳻
㹍
𤃀
逇
𤯔
㛛
㒯
䐨
柾
𣲣
𫂙
𩌑
𠚳
蛿
㵠
䠼
鶸
䨛
錃
𣟄
㡵
㨧
㬩
㨞
茓
鵘
㢬
圙
﨎
䈤
皳
𥢶
闦
𠋘
筙
𩅰
䦤
㖨
囸
㼹
䫩
㰯
䑂
𠠎
䍣
㟟
㾺
婒
敥
㣉
㰻
惍
𧑅
𧬊
𠋢
𫞷
𩧻
匎
䂀
䡷
䥄
𫎇
㲜
㼂
㢏
䡻
笖
䈜
𧎢
紎
𥂫
溬
𢒉
鮜
䐏
𠗚
䈆
塁
劸
𡨃
㠨
瓎
㷂
𤊬
𣰽
𤸑
𨍜
㻸
𡼲
䔯
𤂆
𧓽
椕
𠽋
䁊
𧉬
䡢
𧢼
𦤞
𠯐
𢶍
𪨧
㧧
𢍆
𠌽
𩚳
𦧥
䪨
𣯧
椬
鑟
嗠
𣝼
𠬜
䎈
蘒
䍎
湚
馷
䐛
邚
𣉙
䴧
𤙖
𨎺
𪀍
𨚗
䕌
𨯀
賋
𠌫
捛
㔇
㩇
䙑
勪
𨓜
秓
㧡
𧪠
㶠
𤓉
䣬
铥
㠪
𥉆
㟻
㱳
𠂷
𤛛
𠯑
䞪
橣
𡜮
𣷡
𨽻
𦪞
䍨
㰝
鶍
䨚
擓
𩬆
劽
𡵒
鰺
𫠀
魩
噖
䑨
縔
謽
𧤏
𢷾
䣶
𥜥
㼣
琒
𤬁
䊹
䚂
㢾
㢒
㥰
𤄃
䑍
𧔟
䠣
㨜
䉺
𢵂
䇎
䤐
硢
䐤
蛌
㦌
鐦
㝑
鎶
犜
襷
沎
䌍
桝
䵵
剘
㭑
𫓥
焤
㻟
㔝
㮺
脴
𤠔
飸
亇
鯱
霕
䪴
怾
踋
穐
鈤
䤙
㷓
檱
㹾
睙
𧞶
㽧
釟
翤
䭭
媩
嫃
𫖫
駦
碿
姯
㽤
㤠
镱
䐺
徆
䙜
騿
䞀
㾰
𩾇
萢
䍸
乽
㤲
䐪
䭂
𦨕
鈧
娔
鉂
𧐐
䤊
𣵠
牊
歽
詚
𩏿
𠥙
鮽
〱
燲
䶐
賯
雮
䢑
𠗾
䞟
㩶
䎱
䟻
㪛
勓
炐
䉞
㹯
䊞
鍃
粫
𢙘
䥀
㺞
㢔
姀
䇔
儮
璴
㕄
䮄
䮎
嬫
霘
㵊
䀁
嬵
䶋
䊕
𨂺
隀
㤁
𨧱
㑤
䛅
㹏
䱏
𨈊
𩾈
媑
㴝
䫼
䪘
䕾
䈯
䱀
姄
䌏
䴑
歚
䰇
㲅
𩚹
䑜
𡀽
粷
焧
酠
䎬
𫠊
𨱊
㘌
䬇
䛊
䲵
鯝
飝
雬
鉫
䗬
㧉
猠
䧼
哘
紁
䀃
㸇
岲
匞
钔
𥍟
䱙
傇
㼢
䰗
𫚐
㸨
䳾
䗓
䓻
𦍩
㗸
夦
䜷
㔥
𩣵
㿺
襅
粍
𨨣
𤞣
㙫
䌠
䬶
㿄
䴝
䮤
𤎺
䨜
銯
鋇
聠
𧩄
㽿
䡓
𣙁
㛼
迌
栬
𫌋
鋨
䀿
䕋
㺾
硛
唡
𫞛
䦙
慐
䊓
趶
䧑
㴫
䟕
舯
䦘
㕨
俼
㙇
炻
䴃
𨱆
㶆
㳹
䓝
㙴
㻦
䣓
䴉
鴤
䈝
㷯
䖢
㞤
龯
䄔
䋱
㴧
㧿
𧞫
笷
𣨛
䞬
㜫
𢫫
𡱈
䙈
𧙃
𩐈
𠎱
𠾱
𠦒
䰘
𨄔
𠙆
䀺
𡂒
硓
𤿑
䡗
𩏧
䕘
𪢬
麍
㭢
𡵻
毥
𤂽
㜞
焺
𣹢
𥯃
𦨵
鴌
𠇍
躌
䯪
䑶
㶖
镎
𨑥
欁
㠛
𨬞
𢒰
䘂
𡄸
𥰞
䏐
鯙
䬬
㒻
𧻕
﨨
𤫶
鑆
𪇅
䵤
枦
𤕟
䮑
䯦
娢
䉈
𩢲
嫬
䎔
碦
𣟴
樦
邒
灚
𤏡
㺂
簗
𨈭
𤭁
𦍈
𢿛
劧
𡰈
𩆵
𣵀
𥷤
𥼚
䲝
𡖉
𦣱
𤏳
筽
𠵦
䶌
𤟌
㗢
㪃
㡁
䵗
𠿚
伜
䱽
扨
䝖
㷬
𧾎
藧
䈗
嫅
䩣
䀵
𪂶
𢸅
𢗞
汢
籇
𣚦
㩬
䗨
膤
幊
𤸾
㙱
鐚
𪡧
䦔
𧌲
𢱃
𧿶
畃
嫾
𥼓
𦚞
𢺠
䥐
𢼮
𤐸
𠞦
䩶
𪓌
䐖
䇩
𧆓
㙶
㭉
𡷗
䠄
𣏾
粭
𧯆
𤸪
鱰
𠓗
裐
䛔
㮀
鳈
𧯡
䲀
䂆
㔮
𦿚
㽺
姾
𧊧
仒
䮮
㔬
郌
𧔊
𧌪
䝳
𣅺
䮥
䞜
䍓
𣮆
𢕟
𥚹
㩙
鈰
𢖟
䰓
庅
𧑞
㤐
㘡
䗌
𡢎
䉁
𥸸
𤗚
𩮀
䣿
䣖
䂙
𧏽
㤼
㕍
㼛
𨋎
䣪
䘎
䂕
㺽
𧝵
𡸕
䀄
㙼
窛
㶛
柡
𦞠
肟
䄃
㡾
㙙
𠍽
𥮘
粀
𩛙
𠧟
聕
𥣻
䒫
𧍝
㧪
㞵
㢚
礆
𣰦
㚁
䙪
膼
䟝
䱣
㛚
䮋
媹
𩔊
㮬
伖
覨
囼
宱
䪳
㭋
鑥
㧽
䢮
猄
㵑
莯
旫
䫸
䛇
鰙
䆱
䩩
䆂
閪
㡥
䜮
𤭐
䜃
冴
釓
㬝
㻰
㱈
硳
䌵
掶
镨
椩
痐
㶾
㺮
㡰
囜
荢
㠍
澵
䡜
莡
鎾
䢭
櫇
䎤
詏
䌐
㕈
㚠
𫜳
㫎
䘬
殝
䈦
䂜
銌
㑑
旔
裄
㴼
䛦
鰮
錌
㸹
閅
鎷
䍜
𧭫
㽑
䪧
䡌
㰥
婖
䃓
䒎
烅
𫍟
㷌
㭝
㽾
㜗
䘀
䵐
𡞋
𤠾
㰇
霥
覫
䶲
㓚
謒
諚
𪃧
䲼
㓙
釸
𧦧
㲽
夁
䨑
姲
鮼
𥷚
䜜
䕜
糋
㻓
𥐊
䱦
䏄
𤋲
迏
㑏
䁀
𠋕
䑒
䐾
㢞
刯
䚝
䉭
㷳
䓏
䛎
霗
㡟
㡨
覟
蕔
媝
瀻
䐝
𡱰
鮙
䞧
圕
㙢
貥
䬎
䟉
㤛
㛈
㾾
䠑
粚
䪆
㾍
㬬
㢜
䲲
䝗
㡸
䠗
欌
䔷
䛰
㝦
㾀
㩍
㝼
駳
𬞤
㔎
㭯
魲
㸶
㮖
婈
䂌
䅹
䍒
㦺
䐻
𫛹
灲
䱗
䉒
䂫
㨵
婨
聺
䶨
檌
㤾
䦓
𨥲
㜓
㫳
鎼
橗
軈
桳
𨰾
娮
縨
𫖬
𫕚
䓌
鉰
䍄
䝓
穦
𧉞
屲
𠰱
㑀
銾
㓲
䂸
䁧
鑤
䢪
𩀨
奦
䢤
絒
㘉
嶿
𥉌
㵦
㵅
䝬
焩
䡋
㢍
鰃
﨏
疜
䃿
麲
貵
䪾
𪎉
佡
𡿥
柼
䢣
䗿
㦃
𥇬
㵗
訲
鲃
㑚
罀
锿
𡺑
𠐈
㗂
𣳆
訯
㭜
㩈
嫝
𦥐
䲎
䫳
𨾛
㘦
䄤
䱵
㘊
𤖻
猟
賳
楾
𥲤
偧
𥯨
𥕂
𣡶
渆
𢄙
㻩
𢆉
𢻗
䱅
䬰
㖏
篭
㭡
饓
䱶
㢦
㲘
㨴
𡶓
䒐
纞
㮒
𦙃
𥳓
𠫭
䤷
㤣
㮅
𬤰
𦙮
䣭
𢪔
兞
㱵
䆋
𥳽
㼬
𧕅
䮰
䅦
𧍪
㰭
㔀
𩓣
杣
暷
䫒
拀
銝
𫄤
㕆
䳔
𠊩
灁
㳏
𧈫
䚔
𩅨
𬯔
𤮕
䯯
䤑
𦒷
秹
𡠌
糎
乢
㞂
𡴘
㭩
㒉
䭴
浳
𣵡
𣶈
𩲐
䪉
䱿
𤍿
䰱
铯
𠲿
𦊔
䡀
飹
𥑲
𨲠
𠜴
筺
𫝂
𤬝
𤔔
㾛
㩾
𣤩
𥉻
𨮁
𬬺
䟌
𢫨
㰔
𧫢
𥣜
䪦
𥘉
𦍙
𥄙
𦯒
銤
䨧
𢜾
㹝
㼷
䕨
𢛛
𢘬
𫇿
嬕
䨠
㶡
𥘺
䉊
㲺
鸻
䥞
𡊢
𫙺
𢕬
䝶
𣽵
𡻱
𧘌
𡹔
𧚨
㑅
㧱
㕜
銣
𢽟
𡉫
䉎
𡉙
襙
𣦞
䆺
㭌
㧜
𬄩
䌅
纃
䶬
𧑥
琻
𣶒
叝
㩀
𢕍
𩃰
艩
𫠈
䁶
𦋺
嬞
𢯲
𥈔
㙰
𠨭
𤻛
絋
𣪊
𥦖
龷
𩝫
䳬
㷃
㰐
䐸
𧇭
𢇍
𣞷
𥻩
㠷
碂
𥁃
閯
䶣
壱
𡨄
𣏠
䛷
〩
㢣
𦭵
𨅊
𤊹
龶
䅸
𡏟
䵏
繨
𥡥
䑃
㗵
䩽
𪈳
䨡
𩖕
䦺
𧿁
䏊
䄛
𫘮
𤞞
䇧
𢌅
奙
𠐞
闎
㦩
㸠
𩗗
㘠
婅
㼳
䔜
㬀
䋨
䫾
䆓
𩔖
㼗
溂
嬨
𡽦
嘋
嬘
𨟉
𠆡
樥
㤬
𥏠
撯
𥖵
𢵅
𡱁
㦄
㗴
𦩺
嚺
𢂺
婙
𡧢
𣑨
㚆
𧎘
㿟
𥇜
䛵
𢘉
𥊍
䁽
䀆
𩅀
䠵
𠬪
䌬
𣄛
𡺲
𣿖
䁤
㒽
檶
昸
䍢
䣣
䣧
䞙
糘
𣰅
䞿
䆧
䡧
𦍊
㻕
𩈦
鵈
䁼
𧃆
𠴊
㞸
䒍
𡼣
𡻙
𤀹
𤔌
𧊖
巭
𦉈
㚻
𦊓
簤
𣆳
𡺸
𠜾
㦔
㝜
儏
鮃
𢓵
𣹑
謃
袰
𩦲
𧼴
𧈱
𢧀
𧶽
𨷵
䎧
嬑
𠭯
𡅗
䲙
𠯗
㧼
𦍐
𫂀
㚍
㐴
䒤
𣩨
𡚤
㥚
鶫
㵘
𨱚
㽱
鞩
𩃎
䚭
𩁥
䇍
呏
㭄
絴
栍
㒦
䱬
㛧
䴡
溨
䠀
䄓
腗
垳
䉦
䥬
礖
塦
迚
𫄚
歵
烡
㵵
𧪮
䕆
𩾊
㗆
𪕌
䥔
䉰
䊺
欕
嬠
𫔋
夛
鯡
㺳
㪥
䛚
䥗
萕
㯡
潅
䊙
㩑
鞝
㲂
㧔
䫖
㔂
媤
媴
鍶
䟋
䙘
諬
䚿
䡒
嶳
靵
煭
㺥
垨
㼁
䂡
䟅
㞓
䤏
䢡
㝾
𦟄
㘙
𦉍
𨓏
䮭
𢜔
嚿
㪠
㼕
𫟑
竌
鰏
耮
䱄
鹸
㑘
䔵
縅
䞷
𨑖
䗊
㲹
䒸
㨺
𢘙
㯖
㧎
㿛
㥉
𧉟
𣿙
錼
麬
鰆
㿕
䬒
䏉
䚃
䐋
鴎
㒝
𠚤
㖕
㨯
㻴
䱮
䭁
䒮
𫖓
䳩
𩏂
㴪
䧶
䅤
䂿
鮶
䧤
熗
㕩
椦
㖗
㧵
慩
䤖
𦬼
𡻪
𩭤
䍳
䒃
䡽
𪍿
𤿲
𩚥
𦋅
䇚
饄
腡
䖅
㙳
圐
㯋
㭲
㩆
㶽
𪍠
鱾
㼇
酑
㴵
餜
𫜕
㧆
㦢
䁅
䱝
𩠀
鎱
䡭
瞣
腖
曗
䝘
䮕
䤳
㕝
𣏒
䳠
䋷
鞡
镓
煱
㟨
𢤱
臫
𫟦
𤨏
㻲
䡥
㽰
㠆
𡸔
翸
惇
䶞
乵
䯽
雼
㳝
㝰
䞤
䫿
䏇
稖
䲠
㖻
㴚
恏
㱫
獁
䡵
燳
𫁳
㼉
䉚
郶
䏻
喙
渁
䄭
䋦
䨈
冧
㘻
镚
㯽
宒
㙓
㯊
𦉥
厼
㮷
𤿎
稤
潌
镄
䄼
䩂
涁
䶈
䨫
㜌
𫎧
㛅
𫄩
㑆
㑽
桽
𫞣
㑔
鯻
䥛
䢊
䐎
耥
䘧
䖨
䤮
蹆
䝷
鳚
粨
𩱈
挗
䐮
敋
䝭
䅰
捠
𬶟
㞇
䨊
䚛
簲
䬡
㹽
㶨
䭙
㥈
㞆
襨
鈮
䀸
䗠
䎦
炿
㢖
䗢
㑯
㶦
䍊
𫝩
䀇
𣡵
𨐇
𣨙
㓒
䞃
𢾺
𥊚
䗺
㝭
𦧈
䫀
𤩊
𡾲
鎥
㜈
𦂿
𪚫
𧑒
䮜
梷
鎓
㹦
呄
𧛗
𡷸
䏒
𢢀
㧕
㙑
䢛
𦲮
㔲
𠾆
𨺗
𡶒
㾢
𢙴
𤴔
𠒄
𨬟
䈻
𥊑
㷵
䲖
䫁
𡡏
䇣
𠈈
𢓴
𠪙
𢎞
𧒁
𠮥
槞
𢌦
𣋞
𥱊
𣺫
㟑
𧈭
䀑
䘙
𧦦
𪃩
𤷅
𨎹
𥶙
焹
𨕣
𨌥
𤱔
𩷏
忍
瘬
𩾂
𨞓
𢃔
𣄸
㿧
㧲
𤍨
䡆
𡲬
𪆴
㕽
𩾐
䬐
𣍿
㪨
㦐
䧊
𩅿
傡
㻨
𪔔
㐸
𥨊
𣰰
𧿧
𣜂
𤙛
䊬
𤃬
䒆
𦊱
穃
𨏠
𨻶
𧭉
𡡗
𧕪
鳮
𦒞
㸾
𧙍
𤝞
徺
錴
𣋉
𡱏
𦪇
𢜱
溿
𨌠
䭎
䱕
𢫺
𨁈
𠹗
𥛰
𢺗
𩋆
莽
䖐
𡷯
𩽾
㵕
𩥟
𨃟
䆈
𥓋
𢚂
𥞴
𦿝
𤅙
𥷄
𠈁
漛
𡻭
𡻋
𢡃
竎
𢓈
𨹟
𢿵
𥳆
𦩆
𣪂
䑵
䄘
𣶐
傦
𦉟
𪀸
㩩
𨕬
䏃
𦌉
𬘦
嵄
𡏱
獤
抣
䨍
汧
鎃
㑓
䥟
䲚
䍫
𥒘
𣉜
䕪
箼
䳸
𢉴
䦉
𥌗
㽏
𤽯
㲫
䃫
𤾗
罆
𧺴
䄮
鶰
㬌
氚
𤼣
𦌊
癪
𩓸
𪕏
銢
𣽎
䬁
𬭩
𣬬
𦼮
𠜱
䴞
嫹
㙖
㛙
錆
㟄
𥯗
鮟
𨔁
𦒘
䧪
䵇
𨃪
䬚
㤱
䰷
𩍙
欫
䑀
𨑓
𧫷
𨏼
䳊
㟷
䙯
𤯝
㘤
㚎
𦟠
𪮤
𠷣
𤮓
𣑵
𫖱
𩸩
簓
𤈴
䃖
䇗
𣰆
𩮗
𡽗
䰥
㷁
𩦡
𨇗
䟞
𧌻
𥄎
𨌔
𪹞
𥴸
㿜
㫛
𢹎
腙
𤌉
𩼽
𨔫
𧹬
𧤺
𣀮
㑧
䧯
𩅕
嬦
麣
䮩
𣢆
𢿾
𢾖
䪙
䴩
捑
䮹
𨤍
㧤
𧼈
㜱
𩲕
𪐴
𢧕
䆎
𡸃
𩺃
𦨰
𢾅
䕑
䯘
𦖜
𣫰
㜨
猀
𧮭
䡶
𥳇
𦟀
𠨱
㕤
汈
𠸻
𡷛
䚌
藵
𢡆
𧎅
𨥁
𡒊
䮙
䚅
䝋
𩴄
濹
䲈
䠮
𩎺
𣸲
䦩
𤪌
䔱
𦎧
𡕥
𦧇
𤮘
䦵
鮴
䚳
庺
𫛫
㽍
毩
𥴹
㰈
䅋
𦖒
䛌
䠢
𡄖
䰴
𪆟
𨐔
䭠
䑻
㦑
㴿
𣡬
䃑
箺
䁁
鏭
𩨳
𩣯
䀧
𪇄
𩅦
𣥹
㕱
𣗻
㦅
㺵
𤥎
𡒃
㰪
醌
𥙿
㫹
𫣊
㭛
䛾
𦝰
倹
䉔
䂽
𡵓
㔄
㹺
䄽
𤪙
𡊚
𪑜
𥫃
㺀
𧓷
𣇪
䞥
㘺
㟀
𡞞
㝫
䞽
㮲
𢯭
鶳
𦬖
𥎪
㢨
覾
䙒
𢤁
𧐴
𩆑
㴨
𩰾
𧦭
𣏚
𬱃
䠈
䈡
䲧
銨
𣮧
䂅
𩉬
䁯
𩱓
䑯
㞄
𣶬
贂
𩸑
𠟭
𡼏
䛧
䉿
𠯌
鎅
䃠
櫵
𦖧
䢸
𥸤
䉜
𤏹
𩰡
䰁
𪈺
𠵣
㡤
𨠵
𢜭
䏾
𣲸
㰜
𩿧
𨽥
𦨣
𪅏
𪃐
𣪠
𡰁
𥔍
韷
𣕕
䳮
䝮
𧳽
𢛃
𡼝
窷
𨎥
䛹
𩇕
𦳝
𨢜
𡺠
𣤗
𤴓
𥅡
𠘶
墹
𠤰
䴦
䎸
䒝
䫹
𧫩
㮩
𣒅
㺔
𩛺
𧖅
䯆
𠤎
㵴
𧍓
䧈
閁
䛉
殌
𡞱
䠐
𣦸
㜢
竐
乄
𣫍
㜳
恷
䌧
䚘
𡰯
䫍
𣐤
鯎
𩫸
䅷
䦝
杦
璳
㠮
㔦
䙵
鑀
怺
䢾
幉
䐯
噚
欍
圦
杤
夈
㔏
䄀
𣿄
鵿
郬
𧾱
䃐
㙀
䵌
螩
𤥐
䉲
䠉
𣲹
䑤
䔢
鏮
㡏
䢹
㵸
䙻
窧
䅑
𦜕
㒛
錒
𪕪
䞞
㹊
䢳
㽩
亴
㺕
酫
㫘
𨡭
魹
㸓
𨣧
㣆
㤵
䏆
㭶
𡨢
𤜱
氘
𩏷
䟀
䌔
𥅆
䓱
㡅
懳
䭜
煷
嘃
縥
鵢
蕥
鱩
䊯
䊍
㩓
㪸
鉭
𣈶
䊇
鴫
𦂌
㖄
㾸
㱄
䓄
䈑
掹
靏
𨈀
㓿
㛠
䜾
𤷄
䧱
𧴀
㪒
䯋
𢲔
䄱
鮗
㿽
腟
㮫
䘦
銪
㰬
䜯
𩥄
䞕
䗵
鶥
𥯤
𬳮
𥯓
啠
㲢
﨓
䩰
撪
䈮
𡺽
㜯
䖿
㚅
㰾
煰
鹟
剦
䍱
㱆
㫿
㛥
𠷂
㲏
䳯
𧕾
䰤
稥
䁢
蓜
䶛
䶖
䦹
䳴
擜
䩋
奌
𨠨
䂇
䂘
𥮜
㩝
㷼
㻵
㟉
䦽
𡿗
𦎐
𧙖
𣫴
䲓
灳
㖈
籿
䁄
𡵺
㿔
𫃗
㓔
㣱
䶍
瓩
觨
𤑺
礢
䝹
䟊
䳖
㷤
㩵
鈟
萔
㐤
䏦
築
㒌
𬴐
䫃
䐧
㕊
䉅
𩨋
㸊
㿙
窤
酛
銱
䊾
𢘅
耲
𫢒
遤
䏳
㪫
孞
𩆩
杁
䉨
㚡
𣵞
㜤
䢠
䕒
硘
㾑
䐚
椣
䎝
鍩
䶏
𪀚
䑾
𨜶
䜍
䂻
繧
㒂
㗾
㞾
䞰
䐌
㢻
㸧
岃
鑦
𧛔
䠡
㣒
椨
䦣
䏡
㤚
𫐅
㻙
㵩
婡
䖙
𫝫
䎴
䅚
㧯
䓅
𢡟
𨙷
鋯
䌑
䧒
䆢
軕
䁇
㦾
𤺺
𥲑
𤴙
𥜽
𦳋
䥂
𢲸
𠴫
𩟄
𦆵
鏯
𤷐
𧘝
䲴
𧱉
𦏰
䯞
𦭶
𥴦
㘇
𩠐
𢤧
𧎁
㶫
𡅚
䁐
𪁟
䉑
𩜰
𠔁
㳊
𢹬
𣝋
𢤩
㒅
𢼔
𡥈
𫹮
𣄊
㓊
轋
䰣
𠜜
𤍠
䛺
𠲌
𡷫
㞞
𧿳
𣽱
䐳
𪒶
𩘶
𡕇
㩺
𤸇
𡟬
𩲑
㠚
䳳
𦞂
𫁲
𨥥
𪱿
嗧
㘶
㘋
㘯
䙳
𣸈
䪄
𣙢
嬊
䴁
𧑋
乸
𠻘
䵭
𠥱
𧣒
龸
𩯮
㟔
𢿈
鿇
𦳊
䥊
𠴳
𢈁
𨔛
䳂
𠐴
𣱃
㭇
𣺻
𣂀
𡵆
𦐈
䐵
𪇴
㵍
𩦱
𨢎
䐓
𨏟
𦵔
𪨊
𡼀
𡖓
𦴇
𧰵
𩷄
𨥺
𦤙
𡭐
𧉍
𧍣
㾼
㿖
𢽽
䑊
㝁
𤉵
𤥖
𨚍
㨤
㸮
𪠘
𡋕
𦢏
㸡
𢳇
乮
𢾭
𤅣
𧎼
𣩄
𪕍
𤃆
𢹲
𧍳
㯀
𤾖
𦚭
䎺
䀤
𦡸
䶤
𦅖
㰴
𦉜
㥊
𥐿
䖱
𨻵
𠸍
𤶗
𦰡
㿮
䤺
𣚃
㪐
𥘼
峠
𡼗
𧬈
𢠹
㠒
𡿁
𥫶
𪔜
𥻘
𩃵
𣎟
䏸
𥊻
㑶
㬔
𨋗
𦔯
𤻵
𠐻
𪖐
䁃
𪑧
䛛
𨆫
𦢕
㡷
𤁳
椖
𣪞
𦤼
𣲤
𧞀
𨦟
𢳚
𪝥
𤢜
𩰢
㙥
𡺀
䩲
㸛
𡝭
粴
𠗦
龨
𤡮
㤇
䴶
㢑
𦵧
𨵚
𧩪
𤪈
䌩
䈊
㐵
䞅
䎓
𧎐
𡠉
㞥
𤨟
𩚅
𪍓
𪲄
𧙪
䘞
㲇
𠥀
𩭄
䕲
𪰋
𥯔
㾋
𨗨
䙺
𢂥
𧩶
𧀔
𥃳
𢍪
𩝊
𥿄
䝚
䗕
㿁
䈷
㔟
㨰
濷
𪒟
䖄
𦨔
𤑒
㞺
䋉
䗆
𣣤
碸
𢤈
㩤
𨸌
𢧳
𥜚
𫄦
𥳺
𪫧
𡽪
𤏖
𣹋
䟲
鴴
㸫
䮀
𢋊
𥽷
𦵹
𩐆
苆
㹑
𡩋
䚶
𣟽
𦾱
𨖍
𩛈
䝣
𥀄
𡺡
𥎞
䧗
𪫡
㳒
𤛓
𧛑
𤐬
𪙉
𡢲
㶩
㫥
朑
𢣗
𫚝
𧊜
𨵗
𢛐
䤌
𢻲
𧤗
𦅀
𡁠
𥕕
𦙤
𨙸
𧖜
𥳌
㠇
𨓯
𤬜
𪥫
䎣
䁭
𠹀
𩱋
喙
𦉸
𢫈
𧍘
𪤪
㶮
𢤉
𦎟
𧮳
㧨
㿷
𩑶
𨞢
𡑅
𧼪
㹋
㨪
叾
𨇾
𥏐
㥐
𧔍
𤡬
𨚓
𦮼
㰼
𨻄
𪈏
龬
𩰀
㱎
𫫇
䕖
𢲂
𩻣
𣖹
𩭏
𥉐
𠫓
𪋯
𦳌
𧥥
𨓆
𨦯
䂰
𤬘
𦼆
𠟃
𤸷
𠇓
潂
𪆪
𥐢
𪚗
𣻏
𪽮
𦉾
䇙
㟘
𣺈
𩉾
𠷢
䚪
㨢
𪆂
𠃨
𥍢
䴼
𨗿
䓒
㶵
𧞔
𣹦
䯙
𣗳
𦬔
𨋮
𢦒
𧫣
𥋝
㶊
𣊪
𩸀
𥒵
䶫
䱆
䜠
𧮰
㵛
𩡏
䐠
𤓝
㣦
㲾
𤎥
𤚩
𥻅
䒏
鯵
𩍆
蝊
𣻕
㣰
䞢
斱
𬴈
𥑔
𨵵
䀯
䀓
𣶏
䙄
㒰
𢙉
䗀
𡚜
鉕
𥜿
䞾
𤩭
𣲡
𢡚
𣎝
𤮀
𧜀
㳮
䮡
𦀖
𢂿
𩰖
𧠨
𡵉
㗺
𥖝
㓎
𨇼
緔
䑚
㮢
㳐
𦗵
𢽴
䩘
𩮰
㢆
㬷
𧧰
𤫔
𥂁
𨁹
𠙦
𡿃
𦩷
㶎
𣻑
𨶑
䝜
𬉹
𦝫
䕽
𦰫
䗻
𧝐
𩭔
𩍓
𠤷
䬩
𩭝
𦫈
𧉒
𢅏
䈅
𡚼
䘔
䤚
䫭
𦝁
𥫼
釢
𨢊
𩸄
㦼
䤦
𦨧
𠲽
𦾓
𢛊
䪛
𥞩
瓑
㷰
𩢍
㾶
㼦
𤶬
𨈬
𢼨
䄣
䶙
𦀚
𣝕
𨲕
𥵂
䨶
揻
𣤸
𥬒
㢐
𡣬
𣗙
䥭
龵
鮱
䢺
𡁱
𦸅
𤬪
䶘
𠾬
𠂤
㽋
𥈐
𧨝
𦵸
𥞊
𡘲
𥴱
𧷤
𣤶
𦌾
𧉸
㩮
𤩌
䏛
㚮
𩊚
𡓜
𦱊
㑝
䔆
𪆄
𤐣
𢶅
𡜍
𧕋
𠌜
𧁼
㲕
𧋘
𤱥
𤐰
𣡡
㼨
𦳣
𧉨
𩱛
㞗
𨵃
𢪒
𥛱
𠴈
㫟
𨓚
𣘷
𢶊
𦾵
𡲗
𡷨
𡷴
𣵽
𦏧
𨊵
㴘
𦇏
𣆯
孇
噺
𢇇
䒇
𡻮
㬘
䢄
膵
𩲨
𡵚
𬊳
凲
𧖑
𩩌
𧠺
𢘇
𣿭
𥕌
鰁
𥫱
𧩎
樮
𨖚
𩨨
𨤸
𦮕
䟇
㔽
䋑
𤨬
䗉
㲞
𪂽
䚆
𧝉
靌
𦌏
𧔧
䀍
𠙏
㘗
㜁
䭻
𤂸
𠈰
𣏕
䧥
𤗯
䨬
蘰
𣐽
𡚽
𨾚
𨷻
𥿉
㕵
𪎭
𦯳
𫗖
𤽂
𢆶
㘫
﨔
𢣤
𨞬
𢱯
𠅠
𦫳
𪛊
𦫃
𩏶
㤌
䨺
𢆰
𧉈
䱢
𦿆
𢳎
𧱦
𨖻
𨻳
炛
𡷏
𣦼
𣤆
𡽶
𧑐
𦒑
㲒
𡊅
𥭋
𦭘
𣙗
䀐
𡸯
𧪜
𢝆
槝
𣵪
𣆟
𤄽
𦁤
㿯
𪢻
𠘯
𥞋
𠋽
𦠪
㱛
𤮧
𥋌
𤀰
𦎬
䩷
䪬
𠷺
㕕
𤲸
𡖦
𡶄
𨓒
㪾
䪒
𧔞
𣧩
𤨊
𧳙
𢳛
㰙
𢈚
𩬤
㽊
𡰱
𦡱
䠭
𤓰
䠍
覎
𠫵
𩋰
𣄢
𧬵
𩲞
𨑟
𠛰
𧝱
𥾨
䜰
𬸩
𤚐
𡐓
㨩
𥱧
屮
𤓸
竕
𥉳
梽
䰌
趼
鉱
𡴂
𪫤
㔑
𢑘
粐
𦹾
𦟘
䀔
𪟷
䯹
䥡
䰔
𥪦
䣐
䚀
䅮
㯦
㑍
遖
䢬
雫
鉮
𦍑
𬶮
㵬
䮅
㧃
㢤
鱚
焽
㺤
㳾
㧳
䡕
䳍
礼
䃛
㤎
䥪
𤆢
㷍
䶕
𨀵
㻣
䆚
欅
篒
𬬹
䡐
䠨
䩇
櫷
𤡵
䩗
㤶
䢨
䶜
鋲
㳞
㥍
㣬
䐙
䕤
𫜨
䛑
䒓
椥
𨑹
餎
㓽
𫟕
䤟
䁗
𫟤
䈈
㩫
灐
㓳
㝻
𠬝
𦠛
䏪
䔸
㳖
𧛈
𠌁
𤬛
㫫
娦
逧
錵
䈁
㯛
乊
𦪽
𬙆
𤰩
㚈
𪄉
䰾
椧
𨁸
䥒
䟩
䍏
弪
䈖
饻
㗕
𣅿
瀭
㧴
㟫
㾘
𫟺
㲊
𠸺
䝰
䳆
𤤠
䣁
龦
𪄕
𡹬
𪏌
䤛
𨰥
䠖
䤜
䘫
𬘢
𠯕
𡨧
䣔
𠫍
㪽
𠾨
䐘
䙩
𫜩
𧦝
㦲
𡎴
㼟
籎
𪨹
𫫾
㣠
𣊟
𪌭
䪯
𨆪
噕
䒥
㸺
㰫
銰
絊
䢻
䮊
䎿
㦞
㸪
𩫈
艝
䣮
𪫷
䓀
銩
𢁀
𣽈
𨪪
㵹
紣
𩞄
𣬩
峀
㷎
𬃡
𪉒
椛
𫍞
㔓
鵐
䑢
䭪
躼
䱛
䵥
㰊
䏅
𢱧
㜹
㟩
宺
䖼
䕟
䕀
誮
㞁
𬬴
檪
𩃷
㪗
唞
䅂
𫏕
㩰
䈲
䬨
𥘭
枩
㔊
𤙌
㭸
𤢖
䧡
𥘦
䧳
鳾
嘝
鶓
䖉
䊼
𨪓
䅲
㡈
䲄
䝍
杢
𣡛
𠊟
𫔕
䴓
䂛
𧊔
㲬
𧍙
䜽
㥵
𧝜
䝵
𬨓
𪉄
䛮
㴀
𤅊
𧒭
𫜓
䝏
䯲
璤
駾
甮
𧔥
䮁
䟘
𫖕
㕌
硶
𦨩
𬥼
𩠎
䤤
㺶
㿼
㭗
鍀
𤐤
㽡
𦪑
鮘
㛒
𫮑
㘳
㩔
虲
脷
䚜
𬆮
㥂
𬨔
䆬
鯓
𡾴
䔨
㻼
䗩
㛡
䈺
䨻
㹬
鑧
𢉛
𫨻
𬮷
㑼
𧚅
鐨
駲
𡋤
䔁
矋
䎄
𧍒
䄸
㬿
㴜
䔴
兺
𩱦
㥌
㶤
愥
碷
㦘
𢴲
㺴
苅
𫪁
䪷
㴒
䰖
𢎼
䗝
䛀
䢓
㭹
䇒
㪡
䤒
䦋
䅨
䮬
䅊
䀰
㖖
䫯
㚣
𨎬
䟔
𨦣
䭯
䈟
鉬
䏟
壗
㳭
䚾
㳴
䜐
𣭲
㚚
㔧
㛋
㡍
䁿
䞵
䛈
蒈
𦵮
䦌
煶
䛯
䴜
𫃠
䎁
𢃓
㰉
䎉
𣹤
𥒜
𠷀
𠡦
𤛑
𡸁
𧐖
𧆛
𦀠
𩕄
𤭤
𦒄
𢂹
䜖
𣒍
𤡆
𡨅
𫽄
𧊷
𡔈
𡄓
𫟢
𩝠
𢔄
𤥭
𢧈
龜
𠒋
𪀁
𫃷
㥃
䱑
𡎁
𠵷
𣗪
𤳦
䵡
𤒦
𡒩
𩹲
㬳
䴤
䡛
㣂
𥨆
𧑍
䚺
䒋
䫱
𥖎
𨟖
𪅍
罉
𨈳
𧉠
䩟
㵙
㭀
𧬕
𪀢
𥦛
𤦩
𥎤
𩑌
䤧
𥘬
𦪪
𩯭
𠾐
𣻗
𩤏
𩖨
䙦
𩻟
𥓘
𩰘
𢹝
𪬮
𤜴
𧒱
𦐤
𤛉
𩩞
𩞭
𢡍
𥸅
𨳲
𡽉
𣺌
𪱳
𩨘
䫊
𤇯
𪃹
𠑣
㿶
𪠽
㱉
𩰩
𤕠
䥆
𤻲
𦂫
𦿁
𬇘
𫊆
𫪾
䍰
𠪱
𬫌
㤤
𢦚
𥛬
𨖷
𥕺
𨥧
𪋖
𧣷
𦖟
贘
䤝
𣜎
𥭳
鶎
𠹟
𢚓
𡏲
𩦃
𤌍
𦓗
𪀼
𦺗
𥷋
𡯭
𠂖
𣍡
𢑱
𡿨
䕵
𢔛
𠅞
𩼈
㩡
𬙎
𧓉
粏
𣼩
𧚿
𧃒
䫑
䄧
𪈅
𠜍
𥲀
𨧳
𨴼
䄳
𪇲
𣃼
𡛷
㢇
𪊭
䮱
䄻
𪅖
𤩹
𫃍
𪤋
𥋧
𨣎
𡺍
嘥
𦋥
𢶡
㹐
𩧵
𩭞
𣴰
𤢆
𩆧
𣳅
𩞑
𪃈
𠄢
𢡖
鶲
𫹣
𩔚
𥧂
䋥
𠽢
䓚
𩨬
𩕚
𨶮
𢳝
𥏌
𨂲
𨮔
𦩎
𣿪
𧪘
𣎛
㸘
䱚
𪀀
鋵
𨃠
䨗
𥓂
𢏂
㠳
𦃇
𧝓
𠻗
𢖍
㯎
𫘈
䭢
𢗳
𨚲
䁚
𧱮
𢱸
䔝
𪎱
𢆊
㝴
𧋕
𩯝
𧾏
𬸱
𧽯
㮔
𢆸
兣
𡒳
㤃
𣤔
𦼉
𥗠
𠯀
𩚤
𤠉
𢸗
𣟸
𡓭
𦬊
𩁧
𩙁
䆦
𠋚
䫓
𤤒
孧
𩅸
䓬
𩽴
簯
䰚
𠠍
𥦷
𣓾
𩥂
𤸫
𤋱
𩕋
𣹷
𨪷
𣯟
𤄓
𠠕
𡕀
㱺
𪋤
䀖
𪮾
㹿
𠳤
𧍗
梻
𢠱
𩜺
𣝛
𪂴
𦖵
𬨈
䃊
𠎷
𥡣
㿳
䃟
𦜇
𢖇
𡍫
𨮗
𦌔
𧆟
𩅝
𦳚
䓰
𡬯
𩲡
𦂳
𧟊
𨄌
䛍
𠐾
䓫
𨭚
𦟝
𢌿
𢳿
𥄴
𧝼
𣹰
龧
𧄒
𤉎
𨧫
㽗
𦳓
𠌃
𤩝
𨰠
𨗥
𠂔
𦺙
㯣
𢟟
𠏄
𪩂
𤺰
𢫀
𢌹
𪊲
𡊎
㞩
𬄭
𠄉
㤫
𩄢
𪣀
𬰕
𩚵
𨏔
𥒰
𤄗
𧹁
𥜐
𦨖
𢟆
䩾
𢚈
䉖
𦴊
𨄥
𡛝
𪆙
𧕳
𣌜
𢇳
𢱢
𡓱
𡄋
𬆉
𠰂
𪊨
𣷣
䋹
𣻳
㜇
𥱰
𦰹
𤝷
枠
䐬
𢥇
𣓍
𣞙
𩼎
龻
䑥
𥆙
䌒
䂶
𧯃
𣴊
𩛞
㸵
䙲
䟜
䮒
㫱
𠹛
𢣺
𦙆
㷽
𫂿
𧝋
𥟵
䇦
𢚢
㥺
𩸞
𣞕
㠻
䭝
𦫢
𩤛
𧄏
𢖆
𣐻
𪏆
𣲩
𣞵
𦶬
𠞰
𦅾
䧖
橷
𩑜
𥿡
𩸊
𪄚
𣿂
𡍒
㩞
𡏝
𪳁
𩚴
𦸜
𢷘
𣫄
瓸
𧲨
𠐍
𡊨
𩆟
䦚
旀
䑇
𠊽
𡎠
𡽏
𥎆
𠨞
𥲻
𢜬
𢈈
𢮿
𩪏
𩆂
熴
䭗
䡙
㡄
𤞇
䱲
𥋇
𧚞
䁜
䃆
𥝹
𣾴
䮵
𠊱
𨀘
䯭
𨑤
𢾑
𢜩
𤼲
𧍞
𣌈
䬋
㴥
𧮂
㚹
𪼿
𦤻
𡴴
𫜤
𣴠
㰃
𠪨
𧿥
𡡌
𧡺
𩢿
𩔅
𢡱
㟰
𦢌
𥟭
𥂠
𩿦
𤦪
𡂨
𥫫
𦅻
䜤
𠯴
𧻳
䧐
㥕
𠼳
𧏾
𥂕
𠵔
𦜜
𤣎
龩
𠱛
𣯅
𠊾
𧓬
𪖝
𧝬
𨀖
𥄉
𦪈
𩐋
𧂊
䖈
䌮
𤺍
𣭠
𩗌
𦯶
𬡵
𦌵
𩊐
𨾔
𧉧
𨭐
𩺷
𣺣
𪹣
𥖜
𢹛
𢛔
䙤
𡈧
𢢼
𦧴
𬵩
𤨖
䔻
㾆
𧇢
𢭦
𨌈
𬹢
𤳊
𪒘
𥗼
𥯙
䤭
𧾩
㛭
𥯣
㜐
𥢙
𣿼
䕫
廤
𨔺
𢷈
䞱
𫒌
𨳢
𥯅
𩆎
𢤫
䉸
𡚕
𬷃
𧆑
𤪑
𥔲
䅡
𩞉
𥍫
𢠽
䋩
㝘
𪶒
𬬊
𩴧
葤
𨝋
䬢
㝕
𨥠
𧑱
𩜁
𥰓
㵖
𤣓
㑟
𧞋
𨩮
𧇖
䡃
𬴧
𢩁
𠙽
𩟎
㫭
𧀥
㴗
𦵆
㺧
𨁣
𦺄
𧜖
䅼
𠆘
𡘆
𦓲
𡼠
𤇴
𢛼
䦿
㣌
𧈢
𠁼
𩣚
𥘵
䤽
𢛑
𪌯
𠼐
㷱
𨒃
䑉
䗞
䳷
𩯗
𨑒
𥣬
𧳯
𩊭
𧤾
𩎒
𣚒
𤃦
㫶
䳽
𪢐
𩭩
𤌭
䶑
𩅾
𫄯
𠻜
𦙀
𢓡
𡻊
踎
𥩵
𥆿
𫉉
𣕊
𧽻
鍆
𥳞
䇰
𩐿
㹹
㖆
𢴩
𢱲
𫽥
䋡
𢢞
𥚚
𨭝
𣯾
𡲲
𡨘
𣀅
䏫
㬽
𩾲
𧮬
𨸆
𬭲
䝾
𡅇
䙧
𠀉
𡨥
䴨
𥻰
𤔫
䌄
𣈜
𢝷
𩦤
㭭
𫀪
𠝜
𧎜
𤫤
㦀
𪓟
𦧝
𩃗
䄐
𦻃
𤜣
㾃
㑰
𡲶
𧊭
齉
𦚙
𩆿
鿃
䒴
䒊
𩦪
䇇
𥨐
㨦
𨏮
燵
𪿑
𣤮
䇁
𠦶
𣷽
𨢒
𠕨
𩰮
礃
㹰
𨄄
𦓖
𩣺
𨢢
㽴
𧏡
𧿇
𪹥
𡽁
𢞎
𪆫
𢯦
䏷
𠜑
𢸧
𪾤
𦻏
𩅔
𫭬
𥉏
䩳
𢞕
𦍕
𧛞
𣢸
㹆
𥕢
㓑
㭧
𧹛
𠺞
𤄷
𨕓
䆶
㕺
𠥕
𤟹
㩐
㾴
𢮞
𩶆
𡭍
㧅
䱘
㼓
𦸈
𪺍
𦽑
𠀘
㿾
𦫊
𨍋
𤰞
𦓞
𣴥
𤱧
𧛾
𨰜
㯤
㖽
𣀳
𦥨
𩍶
𦽌
桛
㳸
䖇
𥩋
𬢕
𩱫
𦬇
𪖙
𪑿
䬱
㝊
𡋺
𥴶
𡵇
𤮊
𡆠
罖
𥊧
𦚢
𫅍
䫋
𢚷
𧊒
𠪚
籏
鲬
𪖷
䓹
囖
𦛇
𤭏
𦩻
𧐈
𦒎
𧩫
𨍽
䌡
𩢷
𢯮
𥘽
㷧
𠳹
𦗺
𠯈
𤸃
𣠚
𦑉
𢝘
𤚶
㜙
𡶭
𫠃
𣷉
㣋
𢇆
𣶱
𢛡
𦓔
𥉷
䭮
𩾧
𣚔
𩠁
𩔇
𩟁
𢮁
𤠌
䆑
竰
𥞜
𢮔
𪁉
𬠍
𢟉
䯨
䲾
𢺕
𧎾
䂤
𣫅
𨃤
㷜
㦇
𦐇
𣄆
𣛴
𥜎
𤶧
𥟝
𡻑
𪘨
𬛊
䀥
𤔲
䊽
𠜲
𠲜
䊒
䬮
𦿄
𢇻
𠣜
𣻷
𪏕
𡟛
𩷨
𧳬
𧇃
𣈿
𤳖
𪸗
𬹺
𩃫
𩬔
𥷨
冕
𥖿
𩏌
𣲨
娳
𧨳
𢭆
䎎
𥿽
㑫
𣎳
𨺋
𥐪
榋
𠗉
𧢻
𠵇
䰵
𣂊
𤅈
𤚼
𠬍
𦃓
𡡓
䯕
𪆗
𧍡
𧮅
䩻
𨍥
𤆓
𢝌
𨑑
㖢
𡏜
龫
㣺
𪯲
𤶃
䍆
𪍷
氝
𤢹
𩖡
𨏦
𪿨
𠼫
𤾏
𢊃
𫾚
㞃
𦗢
㚺
𢠠
𩉜
𨺹
𥑇
𢷕
𡉏
䠩
𨛋
𤜵
𩄇
㹲
𨽜
𣘀
𨦵
𠁁
𧵊
𤝵
𩧣
䙙
𤋾
𦙍
𨁊
㛩
𠥣
𩟿
𦏸
𥖪
𤱵
䝅
𣊡
𥤺
𧂀
㔱
䐉
𠆹
𤎲
𤓀
𩵖
䩼
𦇨
𩍜
𨎪
䤣
𩷧
啩
䕣
𢱌
𠸩
𠹔
𦃃
𣷓
𠆉
𣧎
𡹮
𡩖
𢗒
𩨫
𨄳
𧛕
𦾏
䯬
𨵙
𦺆
𦐹
𩚛
𨢇
𬮢
𥹡
𨃥
𪔎
𣢺
𩉙
𦶓
𡶗
𩘐
䧔
𠰔
䘑
𩾗
𦃩
𦜩
𩰳
𨁟
𠠜
𡫴
𬜑
𤄶
𩰞
𧊓
𩳛
𨈌
𤿫
𢣾
𢶖
䒜
䵿
䵮
𨍭
𩧄
𦿏
𤍤
𡾁
𦸣
𠉤
𧗲
𠗨
𩆊
𪦈
䣏
𥶬
𤀞
𨁏
燞
𧏘
䨸
𠨅
𡙁
𦱠
𧫒
𩃟
𥔿
𨕱
𨞆
𣇳
𡵟
𪮧
𡥆
𠍹
𡾹
𦁕
㥎
𦖁
𤬊
𩘷
𩹽
𫙖
𦶇
㛢
𧋠
𠛱
𣂐
𤩰
𪊑
𣚘
䝌
𧒘
𨧨
𤧕
𥾣
𦩠
𨹔
𤧫
㼈
𪾾
鿌
嬶
𪈴
𠁗
𣗶
𦬻
𪗆
𤂌
𦎔
𦖞
𥮉
𢝊
𪿖
𦞪
𦶑
𧚊
銫
啢
𨂜
𩕢
𤏩
𣗍
𤟎
𨓴
㡫
𪼲
𦸉
𡵀
𨊧
𡹿
䡁
𧝷
𢼠
𪂼
𪍑
䧬
㻈
𠂹
𪑩
滋
𢯺
䀙
𧝍
𥙆
𪹍
𧊵
𥶠
𨶳
𢮍
𥮥
𤾸
𥒯
𧀎
𢖊
𣟤
𦆑
𠭇
𥐭
䞶
䘋
𡥐
𧥟
𧌮
㔐
䍅
𦎫
䊐
𬄫
𥅄
䠚
𥕡
𤞚
𡖶
𣭷
𠔣
𧏙
𣏹
𤏙
𣱦
𡨚
㳑
𩥦
𦛠
𧦥
𠔍
鿁
㓁
䍉
鿄
𨩆
㫌
𪉲
𩛽
𠊓
𢀿
𫉯
㝽
𨬖
𣭝
𢥋
𪕕
𧋣
𣑫
𬙝
𣘐
𥷑
䜑
䣟
𥻦
𥥈
𡽳
𫎸
䠏
𤈫
𧰟
𣓁
𨓈
𠰐
𡏇
鉲
𩢱
𥗤
䥅
𦢊
𩧼
𡸶
𧬱
𢾛
𤊐
𩮎
𨰢
䥦
𤆮
𫅑
𢦦
𤩥
𧸛
𣏣
㯨
𣇩
𬳂
𨄅
𠞈
𤥺
𩕏
𨯒
𤩲
𣢮
𡙋
㞣
㕫
𨑙
䣗
𩌈
勺
𣸧
𡱢
䁎
𨕤
𩖽
𢽳
𣙟
䌿
𤻎
𦼓
𩢏
𧻺
𥊲
𡬐
䙂
𦺦
𨆍
㲮
𣹟
㪹
㣵
𠡽
嚸
𩬃
𪳜
𨌰
𧖹
𬴮
𧴖
䟧
𢸙
𥦽
𨢑
𠎳
𢇛
𩰲
𤝔
𪌊
𨮖
𦈱
𩬞
𧼯
䰸
𧌁
𩑺
𬍯
𠏨
脎
𥕲
𨴻
𥩈
𤦲
𥒁
𡻇
𠱤
䅁
𩿰
煵
䜼
𩣭
𬩎
𪑓
𡴠
㮻
𡐨
𧞨
𠐺
𧢸
𧪹
𤂳
䮴
䭵
䳛
㽖
𢘍
𣾜
𨼆
𦾾
䝇
𤆼
𪃟
𥄖
𢅥
𩭪
㫾
䅾
𩾨
䝩
𣹜
𨖁
䲌
𨈋
𠰢
錺
䮓
𥵡
𢀡
䈶
𨶻
䤼
㯞
𣄣
𥖭
𠀑
𬤉
䊿
𧲲
𡕏
𧣄
𢯠
𣖁
𧢟
𨹮
𩫾
𣸨
𧴒
䇼
𨹝
𥸨
𬜪
𨵽
𨵝
𫔏
𫏅
𫐍
𡒰
䲯
𪙾
𬸊
𧣹
𧱋
䂷
𪅝
𥋙
𨍇
𦝚
𥘴
𩅗
𨵿
𨗳
𧃓
𠕜
𧾍
𤾊
㣷
𦐛
𧯎
𨬔
𠏿
𢽱
𨏈
𧊲
䒟
𦓯
𡎞
𦧭
𡄕
𡘾
𡊱
㕂
𡹝
𤭣
𣆉
𪁗
𦺋
𩆺
𤸄
龲
𧄸
𬤆
𧥧
𥖽
𨙨
𦐠
𥾫
䗙
𠵚
𥪡
𡘉
𥦠
𡑀
𣑦
𤜦
𦸏
刃
𥍔
𨮼
𤛗
𠙺
𣽅
𤥴
𧧨
𬵔
䛪
𧥣
𢬸
𠉌
䮏
𩍇
𪙫
𦁄
㵻
𨸒
𦐩
𡎎
𪩛
𥺌
䧣
𤟧
𣍥
𡵃
𤭑
兯
𩇵
𨙻
𧯋
𧝹
𡹄
㗄
𤠑
𣣄
𧻹
𩔂
𨁃
𣉻
𢄼
𨟄
䀊
𠾑
𥅘
𥒸
𤪠
𩷱
㞿
視
鎹
𥞁
𩠛
𣩈
𩝮
𣋓
𥁘
𤡑
𥄳
𣍘
𩡄
𢉆
𪈚
𤺩
𨙕
䒘
𪸤
𠩓
𦺓
𢿭
㾄
𡿧
𤟣
𨘬
䣌
𦘴
𨘷
𤏝
𦌒
𧈼
𠮴
𥿈
鼡
㩏
幥
𢇁
橻
䁻
䰬
𩍚
𩢴
㵤
𩄡
𦔧
𠠛
㾿
𧂭
𢎪
𣅆
𡑸
龱
𦢙
𧮢
䥰
𠶥
𦡼
䞹
鋶
𥘤
𦀓
𧸾
㯩
𡾩
𤩶
𪚕
㖺
𠇾
𧘠
𢝺
𨝸
䨎
𡒁
𣳡
𥌃
䠁
𢆟
𠷎
𧝴
𩒄
𦌙
䎼
蛯
𧫓
𠊰
𧐔
𤡻
𧏺
䓍
𣣱
𤤐
㜿
㒢
𣷸
𠀕
𥣿
𣑀
㪆
𢖜
𪃿
𦋯
𨇯
䢥
𢸨
𦳏
㠦
𣕐
𪅎
𧄽
𪚣
𩷖
鵆
𧧌
𠠦
㩕
𤵝
𠀡
䌗
䃎
𠳶
㴟
𨼾
𢟸
𤓖
䡖
𦊲
𣐙
𨗧
𨴋
𦝢
䳝
㶬
𥠺
𠂢
𢙫
𤇊
䟍
𣯚
𪾼
𪿪
𥞑
𦐴
㸭
𧮼
𦡂
𬴋
𨛳
㴖
𤄊
㫪
㷋
㡣
屗
𨖆
䲍
𪜮
𦄑
䴍
㥔
煀
𨚩
𧲼
𩸬
㙟
𫣂
𨔴
𨋁
㛄
𬮥
𢇨
𩬇
𫗕
𦳦
㛎
㴄
𤢐
𨆏
𢼓
㫠
𫝧
𥪁
䪱
𦂍
𥖚
䅃
䎇
𩦽
㧸
䶝
𩐁
𥽘
𩙖
𪍣
𪑾
䎪
𠗂
𤓯
䁴
𧮒
𪏻
𣰥
𫀓
㜩
𧁾
𩣔
𦮎
𥙴
㼫
𡫳
䐒
𡩕
𣫘
𡿖
裡
𩵀
𪢍
𤔩
𢘑
𣢗
醗
𢷵
𧤁
𢵾
𤉰
𩌅
𡴀
𬗖
𠪀
䍛
㻢
㱍
𣕔
𡎐
𥟱
㬴
𧱯
𠸌
𡘚
𨖊
𣾱
𡾐
𢋼
𫙯
䅈
𠐒
𨯥
䌁
𧬏
𥙾
𫄜
脵
釹
㞭
䅄
噛
㩨
㛻
䩝
䋃
㜟
䇌
鰚
𪠟
䪝
嶌
㓄
䭳
凧
鈥
㐻
䥎
㢵
䁷
𩧿
毟
䮠
䭰
䜙
䛙
㵭
㟾
𩟥
獇
䣥
粌
釷
轌
䝔
䞮
拝
㴇
㝒
䏎
兙
㓐
𪇵
㑱
㝚
巰
㿩
𩸃
𪚐
𡒦
𧸘
𬫏
𨊻
鮲
𥓏
𨸀
𫢺
䫚
𬣣
㔆
𦮽
𫯹
竡
𩷰
籡
㟈
䎻
𩞯
𣍐
𢪶
㮗
㜧
𨖩
𧞤
㿍
䓔
䌦
䯠
𪋞
䳃
𩡺
䠷
𫺊
𫋾
㸳
𩣑
𩾅
𩶘
䍹
𨻗
兡
䥿
螦
𤞑
㓥
笽
𩾎
㶥
𠛾
𥠖
㢃
䌾
𥕱
㙣
䛃
塰
𥴻
椞
𬣟
𫒊
榁
𬘵
䍔
𬴖
𪘯
𨍍
𦔕
䣋
𪭯
𥥛
𧒽
虄
㬕
𣟯
堏
㗽
𥕯
𩙨
䞠
𪟖
㳓
𬳳
𡉥
㝂
𨦫
䣎
𨥰
𬝯
𬭇
䡏
㡽
𡩴
𬮤
䋻
䛸
𢬑
𫧯
錹
㿝
𩙩
㦱
䡎
㳎
𫠌
䦫
𩧆
㶍
䆥
𧻙
𥚢
𫭪
𨔝
𦊰
㕬
𨍰
𡄇
𩓥
㦓
䬷
𣲾
爘
𨳕
亪
𬤨
䉗
𡉛
𢧴
囎
𢈊
𥴨
𨛶
䱞
𨉖
𬡇
𩿪
𧴛
㻜
㬾
𤝢
𫷉
㛇
𬭀
䋯
𬤣
𪪖
䧃
䱧
䮃
㻠
䧋
𬤮
𥏹
㬹
𦊈
𤏸
𪯋
䧠
䧌
㯾
㥿
鋱
𥗝
𠳲
𥵊
𧧺
𢶒
𢂽
㚴
𧭈
㙆
㡶
𠅤
竍
䔓
㜾
徚
螧
䄋
穝
𥇪
䞝
𩽇
䖗
𠛡
㪱
㺛
㜀
㦫
焾
𪥵
鞐
䯷
艈
𨗹
䈌
䝨
㿦
崬
𫖵
鱫
㼏
䮻
𪲞
𩘹
㙒
疂
靎
𩲒
𢪃
䯥
䫷
𩕐
䧰
䌂
䯝
銥
𫐔
𣩃
𩨌
𡏮
𧒮
𦢩
䞩
𢪊
𡺿
㮟
䐷
𩦠
㽐
𬮪
𩘀
䄬
掵
鯐
𫍾
𩷭
𧉮
𬡘
𥭉
䌣
𠴇
𢪛
㠡
㪎
䕍
䳗
㫦
㨸
𤠮
穒
𣲲
𧬜
䎷
乶
𡿒
㢯
䘇
䂹
䆹
㸝
鍅
𥟾
䐫
唙
䦼
𪓰
𠊉
𬑗
䧂
𥗇
𧈧
𩞧
䳙
䦀
㺈
𫷮
㪭
㳳
䨰
𣆏
𫚠
㠽
㹧
䶔
㚗
礂
𩥑
㪝
𨯅
𣵺
紦
㡼
𨇁
鐿
䢢
𦕼
聢
𩒊
䒯
𡄳
𬴌
𩳤
䦂
𬅫
𩨐
䇮
𬸬
𣶫
䦢
𩧦
𤢴
䝦
𧫡
𥟂
䛂
𬘺
㳱
𫎨
䔹
䳥
𫂖
䆜
𡢃
䯃
䛫
䭖
𬸕
㼠
㠺
𦈈
䑅
㫏
㮭
䣇
𩏽
䅙
𧰙
䀻
𡂡
𥂢
𢋫
𩾄
𪿵
𪢒
𧉻
䠽
㭷
㳢
𥥅
蒅
𣙜
𣿉
𩐱
䲞
㙵
䭛
𬱙
𥿊
㮱
𣽸
〒
𧨜
㥼
䀷
𬏄
𫜟
㭞
𫩩
𤊟
䮇
𧬷
𥷴
䞄
攚
䥉
鎇
𬦾
𠳐
𦙱
𨵩
𣛎
蘕
𦁲
䈭
䈧
䎃
𤢟
𤱈
鉳
䣽
䲐
𫷋
𩏪
𬳌
䉕
𪺸
𨐆
䋆
䔳
䬊
𧿈
㚬
㷘
䭺
㣜
粎
㶰
䅿
鐠
㻔
𥬀
潉
㞈
䄁
䌚
〻
䐕
㚾
㹡
㣩
𬎧
𥺅
㑉
𡕾
𩜥
䇅
䧷
𠴟
𣉞
䉙
㝧
㻪
䟄
䜥
䕉
溄
㬄
氱
㗪
䎌
䊭
孭
㼄
粩
𫹗
䒺
𡑍
䢏
䖊
𢩳
鳰
𠑟
䊘
䬗
䢟
蒎
㯚
麶
㧈
㯜
䉝
䦒
鏰
㽇
䮌
𢗝
㚏
𡿇
㽝
埖
𢁰
㞉
㕇
𫭼
㵁
唨
㘀
〿